<unk>	0
<s>	0
</s>	0
▁	-2.87535
,	-3.20925
▁@	-3.26925
▁.	-3.39259
▁the	-3.48879
s	-3.74838
▁to	-4.13303
▁a	-4.15189
▁and	-4.1852
▁of	-4.18723
▁"	-4.18902
p	-4.2034
>	-4.34466
▁<	-4.34602
▁in	-4.46011
▁'	-4.53233
.	-4.83643
-	-4.87618
▁that	-5.08149
▁for	-5.14377
▁is	-5.18063
ed	-5.38193
▁on	-5.46446
▁The	-5.48225
▁with	-5.48705
▁I	-5.52442
ing	-5.54676
▁was	-5.55755
▁it	-5.58505
t	-5.68128
▁he	-5.68998
▁at	-5.69343
▁said	-5.77185
▁:	-5.78747
▁are	-5.8259
▁as	-5.85833
▁have	-5.88111
▁be	-5.88505
▁his	-5.91832
▁from	-5.94536
▁by	-6.00685
'	-6.02361
(	-6.02568
▁#	-6.03036
▁has	-6.03574
▁)	-6.05282
d	-6.05548
ly	-6.08839
▁n	-6.12654
▁not	-6.13079
▁an	-6.13464
▁who	-6.16544
▁they	-6.23065
▁or	-6.29395
;	-6.36937
▁--	-6.39436
▁their	-6.39829
▁you	-6.39968
▁will	-6.42209
▁this	-6.42832
▁but	-6.43928
▁more	-6.44729
▁about	-6.45515
▁had	-6.46958
m	-6.47482
▁one	-6.49234
▁It	-6.54057
▁do	-6.56033
▁A	-6.60535
▁were	-6.62814
▁we	-6.63237
▁would	-6.63433
▁says	-6.64439
▁out	-6.64933
▁He	-6.65406
▁up	-6.67068
y	-6.67238
▁But	-6.68799
e	-6.69967
▁her	-6.71343
▁all	-6.73511
▁been	-6.73884
▁can	-6.76285
▁she	-6.77332
▁than	-6.79796
▁when	-6.83174
▁-	-6.84104
▁In	-6.84397
re	-6.85541
▁which	-6.88425
▁people	-6.90097
?	-6.918
▁like	-6.94018
▁year	-6.96202
▁two	-6.96279
▁its	-6.96394
▁years	-6.97222
▁other	-6.99138
▁there	-6.99256
▁time	-6.99807
▁into	-7.00698
▁what	-7.01128
▁$	-7.02404
▁some	-7.04227
▁first	-7.06677
▁so	-7.07513
▁We	-7.07516
▁1	-7.08936
▁them	-7.10161
S	-7.11829
▁over	-7.12204
▁just	-7.12294
▁could	-7.13431
▁also	-7.13904
▁no	-7.14227
▁new	-7.148
▁last	-7.18061
▁him	-7.18724
▁if	-7.19517
▁after	-7.19655
▁get	-7.22601
er	-7.23661
▁did	-7.26137
▁Mr	-7.26612
▁only	-7.29474
▁because	-7.30323
▁And	-7.30774
▁most	-7.31472
▁my	-7.3334
▁They	-7.34388
▁now	-7.39425
▁many	-7.41769
▁2	-7.42248
▁back	-7.43554
▁where	-7.4421
▁our	-7.46665
▁make	-7.47486
▁say	-7.47811
▁three	-7.48179
▁million	-7.51026
▁me	-7.52403
▁percent	-7.53054
▁New	-7.53691
▁way	-7.54809
▁//	-7.55619
▁how	-7.55765
▁state	-7.56028
▁much	-7.56347
▁work	-7.56879
▁through	-7.57702
▁even	-7.57726
▁10	-7.59132
▁going	-7.59149
es	-7.59444
ve	-7.60116
▁know	-7.60258
a	-7.60479
▁before	-7.60601
▁those	-7.61283
▁home	-7.62433
▁That	-7.62447
▁U	-7.6392
▁think	-7.6522
▁good	-7.65801
▁off	-7.67925
▁want	-7.68124
▁down	-7.68181
▁If	-7.68264
▁go	-7.68293
▁3	-7.68423
▁your	-7.68479
▁any	-7.68817
▁made	-7.69547
▁such	-7.69809
▁then	-7.72008
▁school	-7.72056
▁This	-7.72096
▁There	-7.73727
▁day	-7.74205
▁does	-7.74266
▁She	-7.75395
▁still	-7.7547
▁see	-7.76236
▁well	-7.76718
▁team	-7.80287
▁very	-7.81244
▁take	-7.81267
▁should	-7.8197
▁American	-7.82739
▁You	-7.83396
▁being	-7.83782
▁4	-7.84154
th	-7.84233
▁long	-7.8468
▁season	-7.86327
▁high	-7.86873
▁against	-7.87453
▁When	-7.88221
▁No	-7.88626
▁may	-7.88706
▁company	-7.89127
▁game	-7.90037
▁...	-7.90404
▁right	-7.90953
▁here	-7.91943
▁For	-7.92048
▁city	-7.92387
▁these	-7.92929
▁5	-7.93143
▁too	-7.93612
▁government	-7.94267
▁life	-7.94555
▁four	-7.9482
▁week	-7.94962
▁since	-7.94984
▁under	-7.95485
▁never	-7.95613
▁world	-7.96299
▁own	-7.96356
▁money	-7.96467
▁show	-7.97401
ll	-7.97511
▁St	-7.98377
▁public	-7.9861
▁us	-7.99424
▁got	-7.99652
n	-7.9997
▁around	-7.99994
▁part	-8.00291
▁family	-8.00713
▁another	-8.0094
▁lot	-8.01011
▁N	-8.01271
▁D	-8.01389
year	-8.0201
▁come	-8.02454
▁children	-8.02852
▁same	-8.03184
o	-8.03199
▁while	-8.04254
▁next	-8.05324
▁S	-8.05437
▁San	-8.06561
▁best	-8.06794
▁few	-8.08545
▁president	-8.08948
▁between	-8.09291
▁little	-8.09459
▁business	-8.10172
▁including	-8.10256
▁use	-8.10397
▁As	-8.1065
▁every	-8.10897
▁during	-8.10997
▁each	-8.11121
▁play	-8.11178
▁*	-8.11181
▁7	-8.11425
▁6	-8.11948
▁20	-8.11949
in	-8.11984
▁8	-8.12357
▁big	-8.12369
▁help	-8.12593
▁country	-8.12978
▁need	-8.13048
▁At	-8.1339
▁York	-8.1443
▁former	-8.14888
▁five	-8.16159
▁really	-8.16371
man	-8.16509
/	-8.16548
▁left	-8.16841
▁second	-8.17025
com	-8.17655
▁might	-8.1768
ers	-8.17855
▁place	-8.19061
▁until	-8.19201
▁both	-8.20055
▁end	-8.20829
i	-8.21021
▁ago	-8.21291
▁So	-8.2159
▁better	-8.21923
▁put	-8.23012
▁11	-8.23017
▁What	-8.23728
▁something	-8.24316
▁things	-8.2522
▁United	-8.25308
al	-8.25756
▁officials	-8.26111
▁Washington	-8.26168
▁group	-8.26186
▁used	-8.2647
▁told	-8.26739
▁found	-8.27144
▁John	-8.27501
▁look	-8.27542
▁12	-8.27631
▁women	-8.28334
▁E	-8.28494
▁become	-8.286
▁State	-8.28649
▁days	-8.28763
▁man	-8.29866
▁0	-8.29949
▁9	-8.30107
▁University	-8.30223
▁came	-8.31123
▁past	-8.31279
▁job	-8.31817
▁program	-8.31999
old	-8.32346
r	-8.32619
▁great	-8.32737
▁15	-8.3275
▁called	-8.33409
▁director	-8.33651
▁set	-8.33713
▁small	-8.34416
le	-8.34439
▁One	-8.35058
▁run	-8.35277
on	-8.35816
▁system	-8.35825
▁believe	-8.35838
▁always	-8.36037
C	-8.36179
▁without	-8.36378
▁ca	-8.37202
▁County	-8.37403
▁water	-8.37489
▁On	-8.37872
▁find	-8.3803
▁away	-8.38787
▁took	-8.39472
▁far	-8.40356
▁R	-8.40548
▁law	-8.41177
en	-8.41227
▁C	-8.41251
▁month	-8.41576
A	-8.41631
ies	-8.41893
▁went	-8.41941
▁case	-8.4203
▁less	-8.4211
▁Center	-8.42365
▁enough	-8.42429
▁Atlanta	-8.42876
▁political	-8.42909
▁Some	-8.43346
▁O	-8.4365
▁students	-8.43851
▁later	-8.43928
▁To	-8.44366
▁B	-8.44807
▁City	-8.44832
▁hard	-8.45013
▁night	-8.4573
▁30	-8.45772
▁##	-8.45843
▁among	-8.45932
▁pay	-8.45942
▁black	-8.45974
▁Texas	-8.46085
▁point	-8.4675
▁office	-8.46758
▁least	-8.46894
▁six	-8.46988
▁include	-8.47489
▁House	-8.4752
▁often	-8.47572
▁companies	-8.4762
▁months	-8.47852
▁local	-8.47911
▁18	-8.47924
▁thing	-8.48455
▁His	-8.48707
▁early	-8.48782
▁several	-8.4911
▁market	-8.49165
▁keep	-8.49215
▁real	-8.49447
▁number	-8.5025
B	-8.50579
▁old	-8.50885
▁players	-8.51221
▁area	-8.51265
▁care	-8.51407
▁must	-8.5151
▁police	-8.51641
▁support	-8.52032
▁major	-8.52347
▁young	-8.52603
▁After	-8.52743
▁P	-8.53542
▁war	-8.54098
▁different	-8.54876
▁With	-8.54888
▁half	-8.54903
▁free	-8.55059
▁give	-8.5528
▁today	-8.55336
▁G	-8.55635
▁National	-8.56806
▁health	-8.5681
▁again	-8.56879
▁M	-8.56898
▁house	-8.57075
▁States	-8.57115
▁W	-8.57278
▁power	-8.57532
▁games	-8.57652
▁call	-8.57955
▁men	-8.58256
▁members	-8.58257
▁once	-8.58327
k	-8.58463
▁federal	-8.58578
▁America	-8.58591
▁though	-8.58625
▁recent	-8.58946
▁All	-8.59059
▁according	-8.59143
▁coach	-8.59405
▁room	-8.59411
▁South	-8.59431
▁along	-8.59674
▁plan	-8.59886
▁change	-8.59897
▁making	-8.60065
▁open	-8.60288
▁West	-8.60907
▁times	-8.60946
▁un	-8.60974
▁start	-8.60976
▁President	-8.61572
▁line	-8.61691
▁head	-8.62134
▁whether	-8.62162
▁Park	-8.62172
▁Bush	-8.62175
▁thought	-8.62627
▁win	-8.6267
▁F	-8.6293
▁working	-8.63227
▁feel	-8.63263
▁food	-8.63364
▁national	-8.63372
▁T	-8.63501
▁14	-8.63658
▁billion	-8.63771
▁kind	-8.63862
▁ever	-8.6396
▁California	-8.64044
▁already	-8.64119
to	-8.64617
▁done	-8.64687
▁final	-8.64699
▁trying	-8.64712
▁Francisco	-8.64815
▁tax	-8.64821
▁minutes	-8.64972
▁won	-8.65052
▁began	-8.65337
▁Denver	-8.65444
▁large	-8.65479
▁community	-8.65576
▁25	-8.65706
▁issue	-8.65732
▁13	-8.66835
▁getting	-8.66931
▁doing	-8.67866
▁asked	-8.67896
▁lost	-8.67903
▁offer	-8.68053
▁history	-8.68156
▁L	-8.68541
▁story	-8.69051
▁Now	-8.69154
▁almost	-8.69222
▁information	-8.69227
▁Houston	-8.69362
or	-8.69945
▁North	-8.7012
▁whose	-8.70937
▁third	-8.71207
▁car	-8.71365
▁general	-8.71687
▁seem	-8.71938
▁late	-8.72392
▁tell	-8.72476
▁16	-8.72591
▁live	-8.73267
▁problem	-8.7338
▁kids	-8.73457
▁17	-8.74098
▁military	-8.74347
▁record	-8.7453
▁why	-8.75214
▁deal	-8.75492
▁important	-8.75677
▁court	-8.75716
▁Sunday	-8.75799
▁name	-8.75834
▁K	-8.75918
▁full	-8.75938
▁started	-8.76012
▁Georgia	-8.76267
▁hit	-8.76467
▁book	-8.76561
▁parents	-8.76977
▁hours	-8.77197
▁campaign	-8.77212
▁mother	-8.77343
▁points	-8.77375
▁J	-8.77491
▁schools	-8.77633
▁others	-8.77707
▁music	-8.77868
▁industry	-8.77921
▁Chicago	-8.77975
▁white	-8.77987
▁My	-8.78145
▁oil	-8.78419
▁father	-8.78469
▁together	-8.78634
▁return	-8.79359
▁cost	-8.79582
▁side	-8.79844
▁May	-8.80201
▁Colorado	-8.80888
▁World	-8.81425
g	-8.81484
▁close	-8.81598
▁White	-8.81642
M	-8.81975
▁June	-8.8204
▁50	-8.82112
▁cut	-8.82498
▁move	-8.82519
▁center	-8.8274
▁per	-8.82773
▁service	-8.82851
▁Friday	-8.82945
▁building	-8.83111
▁love	-8.83124
▁near	-8.8335
▁US	-8.8354
▁fact	-8.84267
▁across	-8.84563
▁Street	-8.84817
▁Saturday	-8.849
▁bring	-8.84919
▁report	-8.85108
▁question	-8.85171
▁became	-8.85339
▁School	-8.85385
▁course	-8.85511
▁problems	-8.85577
able	-8.85741
▁seen	-8.858
▁having	-8.86141
▁behind	-8.86165
▁H	-8.86172
▁person	-8.8622
D	-8.86443
▁nation	-8.86515
▁short	-8.86658
▁Clinton	-8.86777
▁remain	-8.86851
▁board	-8.86979
▁sure	-8.87372
▁Do	-8.877
▁talk	-8.87873
▁college	-8.87889
▁played	-8.87975
▁allow	-8.88032
▁19	-8.88101
an	-8.88157
▁nearly	-8.88421
▁future	-8.88478
T	-8.88724
▁By	-8.88946
▁career	-8.89389
▁David	-8.89449
▁chief	-8.89676
▁anything	-8.89853
▁makes	-8.90156
▁Department	-8.90535
▁low	-8.90616
▁executive	-8.91071
▁news	-8.91086
▁face	-8.91309
▁economic	-8.91411
▁While	-8.91475
time	-8.91656
▁film	-8.91777
▁East	-8.91784
▁known	-8.91896
▁hand	-8.92112
el	-8.92259
▁July	-8.92273
▁front	-8.92619
▁able	-8.92791
▁summer	-8.92801
▁recently	-8.93025
ion	-8.93107
▁child	-8.93158
l	-8.93208
▁provide	-8.93264
▁let	-8.93322
▁Dr	-8.93359
▁wife	-8.93482
▁town	-8.93561
E	-8.93724
▁try	-8.9387
▁outside	-8.93987
Y	-8.94029
▁21	-8.94345
▁worked	-8.94481
▁La	-8.94809
▁Co	-8.94863
▁himself	-8.94973
▁Even	-8.94992
▁list	-8.95148
▁looking	-8.95154
▁Michael	-8.95155
▁certain	-8.95182
▁field	-8.95202
▁de	-8.95311
▁financial	-8.95522
▁air	-8.95555
▁control	-8.95644
▁weeks	-8.95828
▁taking	-8.96
▁player	-8.96091
wanted	-8.96211
▁stay	-8.96514
▁yet	-8.969
▁bad	-8.97155
▁coming	-8.97427
▁special	-8.97661
▁An	-8.9771
▁plans	-8.9801
▁son	-8.98012
▁How	-8.98042
▁sign	-8.98055
ness	-8.98143
▁woman	-8.98166
▁40	-8.98267
▁nothing	-8.98286
▁death	-8.9835
▁interest	-8.98444
▁process	-8.98758
▁private	-8.98909
▁seven	-8.99028
▁friends	-8.99036
▁workers	-8.99199
b	-8.99227
▁Then	-8.993
▁turn	-8.99318
▁24	-8.99428
▁running	-8.99448
▁party	-8.99461
▁lead	-8.99674
▁TV	-9.01118
▁playing	-9.0112
▁Ms	-9.01137
▁March	-9.01192
▁everything	-9.01268
▁comes	-9.01275
▁taken	-9.01405
▁Smith	-9.01511
▁100	-9.0157
ic	-9.01571
▁example	-9.01897
TO	-9.02106
▁someone	-9.02151
▁saying	-9.02196
▁given	-9.02235
▁Brown	-9.02239
▁age	-9.02433
▁Iraq	-9.02834
▁buy	-9.02981
▁fall	-9.03024
▁likely	-9.03337
▁reported	-9.03408
▁hold	-9.03755
▁experience	-9.0378
▁average	-9.03843
▁probably	-9.04045
▁spent	-9.04078
▁staff	-9.0436
▁chance	-9.04619
▁manager	-9.04779
▁Congress	-9.04794
ally	-9.04827
▁Monday	-9.05282
▁within	-9.05371
▁senior	-9.05393
▁role	-9.05457
▁wo	-9.05468
▁April	-9.05533
less	-9.05769
▁defense	-9.05794
▁teams	-9.06095
▁eight	-9.06158
▁Tuesday	-9.06198
▁lives	-9.06204
▁idea	-9.0632
▁living	-9.06331
▁saw	-9.06357
▁Americans	-9.06445
▁issues	-9.0652
▁race	-9.06558
▁current	-9.06858
us	-9.0686
▁led	-9.0688
▁yards	-9.06919
▁sales	-9.07031
▁series	-9.0726
▁stock	-9.07271
P	-9.0728
▁held	-9.07306
up	-9.07433
▁decision	-9.07507
▁knew	-9.07582
▁turned	-9.07709
▁jobs	-9.07719
▁sense	-9.07834
▁follow	-9.07877
ton	-9.07963
F	-9.08024
▁Not	-9.08481
▁education	-9.08724
▁gave	-9.08773
▁expected	-9.08823
▁order	-9.0899
and	-9.09119
c	-9.09226
▁co	-9.0924
▁themselves	-9.09294
▁Republican	-9.09399
▁toward	-9.09455
▁price	-9.09622
▁groups	-9.09815
▁leaders	-9.09876
▁economy	-9.10004
▁22	-9.10017
▁using	-9.10079
ity	-9.10215
▁based	-9.1038
▁added	-9.10405
▁particular	-9.10711
▁research	-9.10758
▁single	-9.10983
▁organization	-9.11007
▁increase	-9.11109
▁Johnson	-9.11288
▁movie	-9.11454
▁strong	-9.11475
▁whole	-9.11639
▁moved	-9.11674
▁Last	-9.11804
▁Sept	-9.1186
▁figure	-9.11879
▁Bay	-9.11919
h	-9.12094
▁Al	-9.12156
▁programs	-9.12196
▁stop	-9.12234
▁study	-9.12277
▁policy	-9.12304
▁space	-9.12438
▁George	-9.12475
30	-9.12541
▁especial	-9.12819
▁available	-9.12933
▁project	-9.12936
▁needed	-9.12948
▁seems	-9.13148
▁Bill	-9.13227
▁meeting	-9.13362
▁Re	-9.13363
▁however	-9.13609
▁art	-9.13656
▁Obama	-9.13884
▁miles	-9.13954
▁clear	-9.13961
based	-9.14033
▁result	-9.14193
▁security	-9.14234
▁Most	-9.14286
▁firm	-9.14302
▁candidate	-9.14305
▁credit	-9.14636
▁personal	-9.14643
▁ask	-9.14681
▁23	-9.15029
▁reason	-9.15142
▁www	-9.15512
▁People	-9.15516
▁feet	-9.15588
espite	-9.15608
▁level	-9.15873
▁land	-9.15984
▁possible	-9.16124
▁services	-9.16193
▁James	-9.16233
▁Thursday	-9.16447
▁vote	-9.166
▁read	-9.16769
▁Robert	-9.17103
▁difficult	-9.17213
▁needs	-9.17311
▁died	-9.17377
▁budget	-9.17415
OLONG	-9.17432
▁Los	-9.17446
W	-9.1756
▁matter	-9.17574
▁social	-9.17615
▁site	-9.17765
▁serious	-9.17816
▁media	-9.17893
▁Many	-9.17944
▁Her	-9.18012
z	-9.18333
▁human	-9.18419
▁block	-9.18592
J	-9.18613
▁development	-9.18908
▁else	-9.18964
▁hope	-9.19088
▁ground	-9.19518
▁football	-9.1998
▁couple	-9.20031
▁leave	-9.20068
▁share	-9.20133
▁rest	-9.20234
▁force	-9.20596
▁continue	-9.20622
▁rather	-9.20648
▁shot	-9.20702
▁consider	-9.20773
▁either	-9.20797
▁These	-9.20837
▁wrote	-9.20962
▁everyone	-9.20992
▁longer	-9.21089
▁sell	-9.21327
▁risk	-9.21382
▁High	-9.21399
▁China	-9.21517
▁helped	-9.21566
▁administration	-9.21654
▁road	-9.21692
▁families	-9.21725
▁drug	-9.2174
▁War	-9.21824
▁means	-9.21966
N	-9.22066
ar	-9.22366
▁bill	-9.2255
▁expect	-9.22598
▁district	-9.22657
▁employees	-9.22789
▁heart	-9.22804
▁member	-9.22805
▁residents	-9.22937
ation	-9.22946
▁league	-9.23003
▁shows	-9.23033
▁soon	-9.23102
▁rights	-9.23131
▁potential	-9.23286
▁cases	-9.23454
co	-9.23691
▁moment	-9.24243
▁calls	-9.24432
▁class	-9.24596
▁1/2	-9.24619
▁fire	-9.24848
▁rate	-9.24895
▁felt	-9.2495
▁costs	-9.24953
▁understand	-9.25224
▁From	-9.25234
▁wants	-9.25517
▁mean	-9.25696
▁works	-9.2579
▁states	-9.26132
▁light	-9.26133
▁26	-9.26244
▁27	-9.26292
▁position	-9.26297
▁paid	-9.26334
▁Wednesday	-9.26386
▁higher	-9.26597
▁red	-9.26695
▁Paul	-9.26798
▁medical	-9.26843
ie	-9.26904
▁television	-9.26944
▁morning	-9.26963
▁brought	-9.2714
▁create	-9.27343
▁goes	-9.27432
▁phone	-9.27563
▁sports	-9.27907
▁Hall	-9.27993
▁husband	-9.28038
son	-9.2806
▁Florida	-9.28353
▁28	-9.28462
▁60	-9.28473
▁De	-9.28532
▁non	-9.28694
▁Mike	-9.28738
▁guy	-9.28793
▁growing	-9.28954
ist	-9.29189
▁built	-9.2928
▁training	-9.2928
▁official	-9.29324
▁Association	-9.29347
▁meet	-9.29566
▁growth	-9.29622
▁mind	-9.29662
▁Mark	-9.2968
▁student	-9.30004
▁middle	-9.30223
▁Oct	-9.30523
▁action	-9.30606
▁seek	-9.30658
▁tried	-9.30658
▁sometimes	-9.30757
▁total	-9.31319
▁Senate	-9.31386
▁takes	-9.31506
▁Williams	-9.31701
▁effort	-9.31793
▁Jan	-9.32371
▁build	-9.32743
▁received	-9.32754
▁friend	-9.33061
body	-9.3308
▁leader	-9.33095
▁legal	-9.331
is	-9.3311
▁vs	-9.33204
▁fight	-9.33294
▁Jones	-9.33585
▁international	-9.33644
▁involved	-9.33708
▁Angeles	-9.33807
▁Thomas	-9.33855
▁bit	-9.34177
ce	-9.34225
▁baseball	-9.34246
▁self	-9.34255
▁killed	-9.34385
▁questions	-9.34404
▁District	-9.34625
▁College	-9.34632
▁am	-9.34702
▁key	-9.34803
▁pass	-9.34869
▁attention	-9.35066
▁Jr	-9.35105
▁runs	-9.35146
u	-9.35265
▁trade	-9.35311
▁fans	-9.3543
▁agency	-9.35452
▁sold	-9.35455
▁gone	-9.3555
▁demand	-9.35803
▁prices	-9.36015
▁amount	-9.36034
▁easy	-9.3636
w	-9.3637
▁success	-9.36377
▁Court	-9.36454
)	-9.36502
▁foreign	-9.36568
▁31	-9.36588
▁More	-9.36592
▁post	-9.36726
▁focus	-9.37011
▁homes	-9.37225
▁Two	-9.37273
▁anyone	-9.37338
▁character	-9.37435
ley	-9.37466
▁decided	-9.37938
▁drive	-9.37953
▁THE	-9.37964
▁Road	-9.38022
▁wrong	-9.38287
▁computer	-9.38518
▁1990	-9.38612
▁spending	-9.38673
▁spring	-9.38841
▁earlier	-9.38898
▁inside	-9.38922
▁named	-9.38981
▁cup	-9.39146
▁Or	-9.39231
▁Tom	-9.39334
▁biggest	-9.39339
▁Hill	-9.39387
▁ball	-9.39394
▁pick	-9.39492
▁view	-9.39529
4	-9.39587
▁First	-9.3986
▁store	-9.39907
▁areas	-9.39925
il	-9.40031
▁El	-9.40063
▁visit	-9.40116
R	-9.40202
land	-9.40203
▁loss	-9.40227
▁church	-9.40235
▁/	-9.40479
▁test	-9.40643
▁similar	-9.40901
▁answer	-9.40911
▁29	-9.4095
▁changes	-9.41157
de	-9.41199
▁70	-9.41291
▁contract	-9.41364
▁Inc	-9.41381
G	-9.41522
▁allowed	-9.41592
▁King	-9.41598
▁daughter	-9.41683
org	-9.41687
▁annual	-9.41751
▁technology	-9.4182
▁Green	-9.41866
▁guys	-9.41974
▁sent	-9.42039
ling	-9.42146
▁energy	-9.4223
te	-9.42254
▁region	-9.42291
out	-9.42302
▁met	-9.4244
▁quickly	-9.4251
▁event	-9.42583
▁officer	-9.42672
▁itself	-9.42707
amp	-9.42833
est	-9.42927
▁fund	-9.4313
▁county	-9.43263
▁street	-9.43279
▁largest	-9.43289
▁huge	-9.43347
of	-9.43548
▁property	-9.43565
▁countries	-9.43668
▁pressure	-9.43788
▁restaurant	-9.43831
▁hot	-9.4394
▁Dec	-9.44141
▁actually	-9.44181
▁starting	-9.44491
▁ready	-9.44618
▁instead	-9.44647
▁heard	-9.44648
age	-9.4465
ia	-9.44714
▁gets	-9.44747
▁Nov	-9.44796
▁pretty	-9.44831
▁Lake	-9.44836
▁evidence	-9.44855
▁park	-9.44889
▁popular	-9.44936
▁anti	-9.45066
▁simply	-9.45132
▁election	-9.45193
▁Christian	-9.45357
▁International	-9.45581
▁nine	-9.4572
▁require	-9.459
day	-9.45935
▁write	-9.46254
▁beat	-9.46302
▁true	-9.4644
▁thousands	-9.46443
▁worth	-9.46544
▁income	-9.46552
▁interview	-9.46736
▁spend	-9.46768
▁neighborhood	-9.46985
▁happened	-9.4721
▁Why	-9.47211
▁forces	-9.47278
▁AP	-9.47313
▁Internet	-9.47324
▁insurance	-9.47374
▁practice	-9.4757
▁Big	-9.47576
▁Democratic	-9.47598
▁performance	-9.4766
▁body	-9.47723
▁video	-9.4799
▁goal	-9.48033
▁forward	-9.48048
▁Our	-9.48114
rs	-9.48193
▁trial	-9.48205
▁NFL	-9.48357
▁changed	-9.48393
▁fear	-9.48407
ism	-9.48513
▁represent	-9.48595
L	-9.48653
▁God	-9.48655
▁door	-9.48686
▁conference	-9.48732
▁victory	-9.48779
▁voters	-9.4878
▁form	-9.488
▁ways	-9.48807
▁lower	-9.48872
▁attack	-9.48892
▁created	-9.48897
▁gas	-9.48923
▁happen	-9.48974
▁vice	-9.49006
▁approach	-9.49026
▁situation	-9.49119
▁hour	-9.49131
▁basketball	-9.49132
▁served	-9.49252
▁safety	-9.4928
▁Jim	-9.49421
na	-9.49428
▁hear	-9.49546
▁learn	-9.49576
▁Israel	-9.49597
▁title	-9.49718
▁star	-9.49725
▁hands	-9.50068
▁green	-9.50126
▁watch	-9.50276
K	-9.50337
ch	-9.50378
▁break	-9.50453
▁value	-9.50574
▁Still	-9.50586
▁chairman	-9.50734
▁Democrats	-9.50791
▁talking	-9.50796
▁80	-9.50976
▁stand	-9.50982
▁Although	-9.51004
▁period	-9.51005
as	-9.51021
▁efforts	-9.51028
▁events	-9.51166
▁Joe	-9.51286
▁trip	-9.51724
▁winning	-9.51867
▁round	-9.51917
▁Free	-9.51964
I	-9.51985
▁Just	-9.52014
▁Richard	-9.52076
▁population	-9.52211
▁35	-9.52221
▁cover	-9.52514
▁African	-9.52591
▁step	-9.52742
▁rates	-9.52744
▁Europe	-9.5295
▁debate	-9.52962
▁Red	-9.53016
▁Council	-9.53059
▁numbers	-9.53159
▁Day	-9.53225
▁Mexico	-9.53236
▁attempt	-9.53361
▁pro	-9.5348
▁paper	-9.53552
▁Virginia	-9.53568
▁customers	-9.53631
▁$1	-9.53696
▁owner	-9.53723
▁fresh	-9.5381
▁Post	-9.53988
▁main	-9.5404
▁opened	-9.54054
▁Other	-9.54064
▁common	-9.54129
▁professor	-9.54175
ner	-9.54354
▁dollars	-9.54399
by	-9.54515
▁heat	-9.5453
▁officers	-9.546
▁experts	-9.54624
▁Davis	-9.54662
x	-9.54685
▁rules	-9.54698
▁add	-9.54732
▁crime	-9.54788
▁wide	-9.54936
▁base	-9.54966
▁kept	-9.55003
▁begin	-9.55039
▁leading	-9.5504
▁Since	-9.5504
▁Jackson	-9.55064
▁Republicans	-9.55219
▁rule	-9.55224
▁poor	-9.55258
▁announced	-9.55262
▁Lee	-9.55301
line	-9.5535
the	-9.55498
▁words	-9.55503
▁considered	-9.55526
▁production	-9.55645
▁dinner	-9.55662
▁walk	-9.55671
▁perhaps	-9.55735
▁books	-9.55788
▁Thos	-9.5592
▁fine	-9.55927
▁funds	-9.5603
@	-9.56035
▁fourth	-9.56162
▁cars	-9.56174
▁lack	-9.56217
▁sound	-9.56237
▁access	-9.56251
▁department	-9.56257
▁Yet	-9.5635
▁2000	-9.56355
1	-9.56387
ra	-9.56515
▁learned	-9.56673
▁Army	-9.56781
▁capital	-9.5708
▁results	-9.57083
▁French	-9.57177
▁lose	-9.57244
▁included	-9.57356
▁search	-9.57382
▁daily	-9.57398
▁quarter	-9.57415
▁Martin	-9.57447
▁giving	-9.57482
▁Union	-9.57626
▁protect	-9.57637
▁raised	-9.57648
▁tough	-9.57761
▁Central	-9.57779
▁beginning	-9.58036
▁draft	-9.58045
▁moving	-9.58239
ian	-9.58346
ry	-9.58416
▁data	-9.58466
ro	-9.58466
▁bank	-9.58487
foot	-9.58676
▁violence	-9.58941
▁taxes	-9.58973
▁investment	-9.58981
▁Bob	-9.58997
▁word	-9.59088
▁decades	-9.59232
▁V	-9.59316
▁Today	-9.59358
▁design	-9.5937
▁hospital	-9.59381
▁suggest	-9.59388
▁plays	-9.5943
▁Austin	-9.59456
▁European	-9.59568
2	-9.59614
▁remains	-9.59649
▁mid	-9.59812
▁decade	-9.59873
▁track	-9.60018
▁act	-9.60083
▁station	-9.60303
▁opportunity	-9.6042
mail	-9.60453
▁English	-9.60566
▁older	-9.60602
▁above	-9.60677
▁culture	-9.6073
▁attorney	-9.60749
▁Louis	-9.60764
▁Soviet	-9.60867
▁range	-9.60931
▁Here	-9.60993
▁sort	-9.60995
▁usually	-9.61037
▁USA	-9.61123
▁choice	-9.61173
ne	-9.61248
▁table	-9.61271
▁cities	-9.61465
▁Chinese	-9.61509
▁Every	-9.61874
▁impact	-9.61931
▁Dur	-9.61974
▁League	-9.62038
▁host	-9.6208
▁Valley	-9.62083
▁natural	-9.62166
▁William	-9.62246
▁River	-9.62594
▁Christmas	-9.62717
▁speak	-9.62805
▁present	-9.62819
ur	-9.62867
▁deep	-9.62905
▁fun	-9.62927
▁records	-9.62933
▁opening	-9.62946
▁beyond	-9.6296
▁Church	-9.62997
▁Man	-9.63109
▁fast	-9.63165
▁conservative	-9.63177
▁businesses	-9.63195
▁floor	-9.63243
▁wait	-9.63417
▁alone	-9.63432
▁addition	-9.6345
▁Like	-9.63585
▁regular	-9.63721
men	-9.63742
▁traditional	-9.63746
da	-9.63894
▁Aug	-9.64051
▁championship	-9.64069
▁voice	-9.64103
▁letter	-9.64179
▁Boston	-9.64217
▁account	-9.64239
▁investigation	-9.64482
▁products	-9.64496
▁weekend	-9.64512
▁radio	-9.64522
▁club	-9.64566
ville	-9.64631
▁Scott	-9.64638
▁required	-9.64691
▁passed	-9.64768
▁following	-9.64881
▁cash	-9.65117
▁quite	-9.65198
▁network	-9.65278
▁General	-9.65298
▁quality	-9.65352
▁Russian	-9.65369
▁offers	-9.6544
▁Western	-9.65441
▁housing	-9.65689
▁signed	-9.65707
▁fat	-9.65792
▁brother	-9.65881
▁ran	-9.65952
▁stories	-9.66219
▁agreed	-9.6622
▁charge	-9.6627
lthough	-9.66272
▁basic	-9.66401
▁British	-9.66493
▁prison	-9.66665
▁individual	-9.66674
▁reach	-9.66716
▁troops	-9.66866
▁rock	-9.67016
▁newspaper	-9.67178
▁90	-9.67273
▁response	-9.67372
ta	-9.67488
▁challenge	-9.67488
ma	-9.67567
▁version	-9.67578
▁wine	-9.67677
term	-9.67715
▁Carolina	-9.67832
▁Bowl	-9.67837
▁entire	-9.67923
▁patients	-9.68014
▁Southern	-9.68054
▁competition	-9.68108
▁bought	-9.68116
▁failed	-9.68173
it	-9.68262
▁proposal	-9.68418
▁simple	-9.6857
▁benefits	-9.68601
▁travel	-9.6882
▁Black	-9.68827
▁remember	-9.6891
▁Editor	-9.69001
ment	-9.69025
▁reports	-9.69057
▁ahead	-9.6909
▁serve	-9.69217
▁ended	-9.69238
▁January	-9.69268
▁committee	-9.69317
▁Bank	-9.69433
ler	-9.69471
▁effect	-9.69477
▁further	-9.69523
▁hearing	-9.69595
▁management	-9.69604
▁Japan	-9.69615
▁majority	-9.69622
▁judge	-9.69728
▁Web	-9.69826
▁join	-9.69844
▁charges	-9.69942
▁grew	-9.69993
▁stage	-9.70008
▁Steve	-9.70009
▁....	-9.70015
▁Art	-9.70037
▁fish	-9.70038
▁salt	-9.70126
f	-9.70147
H	-9.70191
▁construction	-9.70209
▁returned	-9.70253
▁thinking	-9.70263
U	-9.70317
▁peace	-9.7034
▁looks	-9.7042
▁projects	-9.7043
▁lived	-9.70558
nother	-9.70653
▁Ga	-9.7076
▁plant	-9.70867
▁Chris	-9.71047
▁governor	-9.71076
▁border	-9.71095
▁ability	-9.71144
one	-9.71177
▁model	-9.7126
be	-9.71276
▁raise	-9.71405
O	-9.71505
▁Because	-9.71583
▁complex	-9.71626
▁bar	-9.71641
▁tour	-9.71703
▁Of	-9.71745
▁camp	-9.71773
▁Add	-9.71779
▁society	-9.71807
▁Their	-9.7183
▁whom	-9.71877
▁double	-9.71915
▁released	-9.72194
▁spokesman	-9.72309
▁damage	-9.72507
▁relationship	-9.72544
▁quarterback	-9.72606
▁writing	-9.72647
▁forced	-9.727
▁concern	-9.7282
▁Charles	-9.7286
▁century	-9.72918
▁establish	-9.73123
▁benefit	-9.73209
▁gun	-9.73276
ant	-9.73446
▁eyes	-9.73491
▁Times	-9.73504
▁terms	-9.73524
▁send	-9.73572
ri	-9.73593
▁happy	-9.73598
▁Pittsburgh	-9.736
▁Calif	-9.73616
▁Club	-9.73635
▁commercial	-9.73644
5	-9.73681
▁cause	-9.73773
▁Corp	-9.73787
▁1980	-9.73947
▁statement	-9.74059
▁cancer	-9.74085
▁Be	-9.74098
▁Open	-9.7418
▁original	-9.74199
▁teachers	-9.74331
▁dead	-9.74332
▁streets	-9.74484
▁criminal	-9.74503
la	-9.74513
▁lines	-9.74515
▁hotel	-9.74574
▁crisis	-9.74624
▁receive	-9.74697
▁debt	-9.74756
▁editor	-9.74877
▁Dan	-9.75106
▁investors	-9.75125
▁struggle	-9.75206
▁movement	-9.75222
ir	-9.75265
▁describe	-9.75272
▁press	-9.75384
▁Institute	-9.75482
ine	-9.75485
▁extra	-9.75611
▁Israeli	-9.75614
▁politics	-9.75645
▁Sen	-9.75698
▁online	-9.75936
▁corporate	-9.76058
▁hundreds	-9.76068
▁lawyer	-9.7625
▁Mary	-9.7627
▁revenue	-9.76417
▁maybe	-9.76431
▁nuclear	-9.76479
▁message	-9.76501
▁Federal	-9.766
ter	-9.76656
yard	-9.76773
▁hurt	-9.76817
▁Russia	-9.76824
▁scene	-9.7686
▁downtown	-9.77066
▁stores	-9.77108
▁Miller	-9.77121
▁Japanese	-9.77266
▁45	-9.7731
▁complete	-9.77361
▁check	-9.77418
▁spot	-9.77572
▁save	-9.77655
▁author	-9.77674
▁1992	-9.77676
▁closed	-9.7772
▁release	-9.77749
▁chicken	-9.77784
▁traffic	-9.77844
▁c	-9.77925
▁north	-9.77931
▁enjoy	-9.77973
▁size	-9.77974
▁blood	-9.77975
▁agreement	-9.78013
▁civil	-9.7811
▁pre	-9.78133
▁Mo	-9.78175
▁owners	-9.78181
▁independent	-9.7825
▁religious	-9.78333
▁rise	-9.78405
ive	-9.7845
▁assistant	-9.78466
▁girls	-9.78482
um	-9.78531
et	-9.78563
wood	-9.78701
▁produce	-9.78755
▁guard	-9.78894
▁Ave	-9.78934
▁1996	-9.78936
▁born	-9.7902
▁operations	-9.7909
▁finished	-9.79176
▁audience	-9.79207
▁leaving	-9.79343
▁regard	-9.79465
▁200	-9.79476
▁typical	-9.79481
▁treatment	-9.79577
▁Le	-9.79603
▁stuff	-9.79679
▁teacher	-9.79702
▁mostly	-9.7971
▁fell	-9.79939
▁sex	-9.80059
▁serving	-9.80143
▁favorite	-9.80165
▁difference	-9.80254
▁successful	-9.80266
▁provid	-9.80307
▁Jordan	-9.80318
▁writer	-9.80328
▁tournament	-9.80343
▁band	-9.80475
▁Young	-9.80483
▁agree	-9.80505
▁significant	-9.80538
▁conduct	-9.80634
▁Iraqi	-9.80658
▁Air	-9.80772
at	-9.80915
▁Press	-9.80975
▁division	-9.80975
▁losing	-9.81133
▁places	-9.8114
▁Party	-9.81155
side	-9.81173
▁Olympic	-9.81181
mo	-9.81255
▁disease	-9.81279
▁November	-9.81293
▁latest	-9.8135
▁piece	-9.814
▁2001	-9.81476
▁Ohio	-9.81583
▁gold	-9.81608
▁II	-9.81622
▁August	-9.81634
▁review	-9.8168
▁estate	-9.81705
▁battle	-9.81815
▁address	-9.81972
▁Feb	-9.82023
▁baby	-9.82043
▁Over	-9.82202
▁49	-9.82279
▁speech	-9.82372
over	-9.8241
▁grow	-9.82464
▁theater	-9.82504
▁1994	-9.8252
▁Committee	-9.82527
▁due	-9.82605
▁professional	-9.82606
▁drugs	-9.82714
▁straight	-9.82789
▁specific	-9.82818
▁throughout	-9.82829
▁modern	-9.82966
▁soldiers	-9.82994
▁written	-9.82995
▁scored	-9.83024
▁joined	-9.83098
▁taste	-9.83112
3	-9.83113
▁Service	-9.83119
▁picture	-9.83159
▁term	-9.83211
▁speed	-9.83243
▁reached	-9.83341
▁Long	-9.83371
▁feeling	-9.83403
▁designed	-9.83625
▁south	-9.83674
▁News	-9.83677
▁target	-9.8372
00	-9.83734
▁strike	-9.83765
ier	-9.83805
▁science	-9.83899
▁2008	-9.84015
▁eventually	-9.84102
▁carrie	-9.84113
▁global	-9.84137
▁About	-9.84238
▁Chronicle	-9.84284
▁Health	-9.84297
ul	-9.84536
▁Jeff	-9.84612
▁Iran	-9.848
▁subject	-9.84865
▁Museum	-9.84925
id	-9.84978
▁Wilson	-9.85213
▁previous	-9.85246
▁defensive	-9.85332
▁Frank	-9.85458
▁Both	-9.85478
nstead	-9.85574
▁Let	-9.85579
▁respect	-9.85664
▁article	-9.8568
▁labor	-9.85705
field	-9.85716
ary	-9.85752
▁twice	-9.85778
▁language	-9.85864
no	-9.85904
▁trouble	-9.85915
▁doctors	-9.85962
do	-9.8604
▁crowd	-9.86112
▁weapons	-9.86129
▁eye	-9.86155
ig	-9.86281
▁Will	-9.86338
▁seat	-9.86364
▁selling	-9.86559
▁retired	-9.86574
▁September	-9.86623
▁product	-9.8674
▁citizens	-9.86743
▁2002	-9.86776
▁style	-9.86905
▁blue	-9.86952
▁sit	-9.87013
▁laws	-9.87026
▁Ben	-9.87087
▁December	-9.87136
▁proposed	-9.87154
▁pepper	-9.8724
▁Illinois	-9.87246
▁reading	-9.8733
▁aid	-9.87345
▁myself	-9.87387
▁boy	-9.87435
▁Miami	-9.87557
▁gives	-9.87576
▁Germany	-9.8762
▁reform	-9.8763
▁boys	-9.87642
▁avoid	-9.87689
▁Commission	-9.87719
▁Public	-9.8772
ty	-9.87755
▁32	-9.87904
off	-9.87912
am	-9.87989
▁Avenue	-9.88207
ha	-9.88215
▁married	-9.88244
▁perfect	-9.8827
▁overall	-9.88442
▁continued	-9.8848
▁Creek	-9.88509
▁shift	-9.8851
▁Also	-9.88516
▁Home	-9.88517
▁eat	-9.88519
▁Y	-9.88593
▁contact	-9.88659
▁waiting	-9.88692
▁Beach	-9.88752
▁quiet	-9.88849
▁1995	-9.89006
▁Santa	-9.89021
▁mention	-9.89023
▁kitchen	-9.89215
▁Jack	-9.8927
▁Pa	-9.89367
▁limited	-9.89395
▁2004	-9.89421
▁magazine	-9.89444
▁sugar	-9.89469
▁younger	-9.89562
▁caught	-9.89571
▁accept	-9.89692
▁sauce	-9.89757
▁heavy	-9.89874
▁arrived	-9.89882
▁doubt	-9.89892
V	-9.90025
▁fighting	-9.90099
ham	-9.90103
▁Call	-9.90122
▁driving	-9.90143
▁teaspoon	-9.90163
9	-9.9027
▁presidential	-9.90345
ke	-9.90403
▁attacks	-9.90523
ized	-9.90526
▁Super	-9.90571
▁clean	-9.90813
▁pounds	-9.90872
looked	-9.90875
▁hopes	-9.90985
▁Who	-9.91051
▁Photo	-9.91057
▁1998	-9.91061
▁Peter	-9.9108
ish	-9.91171
▁card	-9.91231
▁Dallas	-9.91302
▁coaches	-9.91462
▁watching	-9.9153
▁Area	-9.91684
ous	-9.91696
▁October	-9.917
▁planning	-9.91775
▁dropped	-9.91841
▁marriage	-9.91866
▁2003	-9.91898
▁concerns	-9.91984
▁mayor	-9.92014
▁7:30	-9.92033
▁Middle	-9.9207
▁comment	-9.92077
▁sport	-9.9213
▁appear	-9.92143
▁feature	-9.92185
ad	-9.92219
▁golf	-9.92264
▁1999	-9.92343
▁Catholic	-9.92346
▁Group	-9.92358
▁union	-9.92404
▁additional	-9.92419
▁Security	-9.92473
ey	-9.92489
▁girl	-9.92553
,000	-9.92643
▁sale	-9.9267
▁Three	-9.92696
lin	-9.92751
▁bowl	-9.9281
▁prevent	-9.92887
▁powerful	-9.92917
▁concerned	-9.92929
▁murder	-9.93027
ca	-9.93094
▁cold	-9.93099
▁slow	-9.93159
▁Me	-9.93177
▁leadership	-9.93201
▁compared	-9.93244
▁offensive	-9.93335
-5	-9.93338
▁Can	-9.93343
▁Fox	-9.93347
▁environment	-9.93347
▁Well	-9.93432
▁features	-9.9346
▁agent	-9.93461
▁putting	-9.93464
▁bottom	-9.93528
▁reflect	-9.93571
▁ice	-9.93576
▁trust	-9.93606
▁worst	-9.93645
▁larger	-9.93667
▁Through	-9.93724
▁offense	-9.93841
▁Sun	-9.93905
▁improve	-9.93987
▁appeared	-9.94032
▁maintain	-9.94036
▁equipment	-9.94045
▁cast	-9.94129
▁throw	-9.94166
▁fair	-9.9433
▁g	-9.94399
go	-9.94455
▁Ryan	-9.94503
▁dark	-9.94526
▁75	-9.94537
▁Wall	-9.94577
▁2006	-9.94594
▁Justice	-9.94659
os	-9.94676
▁standards	-9.94692
▁reduce	-9.94716
▁Once	-9.94757
ac	-9.94812
▁hair	-9.94815
▁1993	-9.94958
▁Rock	-9.95004
▁dozen	-9.95063
▁shooting	-9.95072
▁bus	-9.95079
ga	-9.95103
ING	-9.95117
7	-9.95171
house	-9.95192
▁Sr	-9.95229
▁38	-9.95378
▁generation	-9.95378
▁rich	-9.95388
▁safe	-9.954
▁1991	-9.95402
▁everybody	-9.95424
▁Oakland	-9.95497
▁carry	-9.95509
der	-9.95553
▁box	-9.95573
ge	-9.9575
▁supposed	-9.95783
▁wall	-9.95797
▁movies	-9.95799
▁marketing	-9.95883
▁nice	-9.96102
▁various	-9.9622
▁Bar	-9.9629
▁1989	-9.96375
▁coverage	-9.96382
▁33	-9.96408
▁Before	-9.96478
▁Go	-9.96592
▁notice	-9.96656
▁native	-9.9669
▁Good	-9.96738
▁image	-9.96785
▁charged	-9.96838
▁500	-9.96923
▁immediately	-9.96939
▁environmental	-9.96957
▁Kevin	-9.96985
▁France	-9.96987
▁executives	-9.97007
▁London	-9.97025
▁34	-9.97077
▁Rep	-9.97233
▁2005	-9.97429
▁Women	-9.97452
▁banks	-9.97517
6	-9.97531
▁apartment	-9.97599
▁drop	-9.97677
▁square	-9.97694
▁onto	-9.97859
town	-9.97883
▁abuse	-9.97968
▁depend	-9.98056
▁1997	-9.98218
▁meat	-9.98263
▁airport	-9.98274
▁consumers	-9.98537
▁Michigan	-9.98543
▁campus	-9.98573
▁vehicle	-9.98617
▁dance	-9.98687
▁calling	-9.98857
▁sea	-9.98871
▁willing	-9.98875
▁37	-9.98881
▁plus	-9.98906
▁German	-9.99001
▁Fort	-9.99024
▁afternoon	-9.9905
▁contain	-9.99082
▁decide	-9.99155
▁agencies	-9.99179
▁color	-9.99199
ities	-9.99208
▁paying	-9.99262
ate	-9.99333
▁below	-9.99368
▁push	-9.99368
▁Sam	-9.99448
▁encourage	-9.99473
▁central	-9.99475
▁Howev	-9.99482
▁degree	-9.99544
▁cool	-9.99636
▁Va	-9.99677
▁shop	-9.99689
▁Harris	-9.99693
▁artists	-9.99753
▁butter	-9.99761
▁talent	-9.99765
▁attract	-9.99796
▁2010	-9.99808
▁Where	-9.9982
▁becoming	-9.99844
led	-9.99852
▁Ford	-9.9994
▁sexual	-9.99995
▁36	-9.99996
way	-10.0004
▁illegal	-10.0007
▁pan	-10.0009
▁extreme	-10.0011
▁conversation	-10.0014
▁claim	-10.0015
▁Place	-10.0021
8	-10.0023
▁parking	-10.0033
▁Mountain	-10.0035
▁kid	-10.004
▁positive	-10.0041
▁filed	-10.0046
▁According	-10.0047
-6	-10.0051
lo	-10.006
▁houses	-10.0062
▁systems	-10.0065
▁reasons	-10.0069
▁plants	-10.0076
▁separate	-10.0077
▁Though	-10.0079
▁parts	-10.008
▁Fla	-10.0081
▁nature	-10.0082
▁Police	-10.0087
hour	-10.0088
▁funding	-10.0088
▁partner	-10.0099
▁buildings	-10.01
▁Don	-10.0104
▁claims	-10.0104
▁standard	-10.0113
▁cuts	-10.0114
ka	-10.0115
▁Tech	-10.0115
▁expensive	-10.0119
▁appears	-10.0126
0	-10.0126
▁adding	-10.014
▁warm	-10.0142
▁initial	-10.0143
▁seeing	-10.0146
▁necessary	-10.0148
▁interested	-10.0157
▁threat	-10.0163
▁Among	-10.0165
bo	-10.0167
▁lawyers	-10.017
▁42	-10.0186
▁greater	-10.0187
▁2007	-10.0187
▁survey	-10.0192
▁resources	-10.0193
ent	-10.0197
▁edge	-10.0197
▁weight	-10.0204
▁schedule	-10.0206
▁adds	-10.0219
▁develop	-10.0219
▁activities	-10.022
▁regional	-10.0221
▁count	-10.0224
▁Bo	-10.0224
▁Island	-10.0232
▁names	-10.0242
▁sitting	-10.0243
▁classes	-10.0243
▁Only	-10.0248
▁55	-10.0267
▁train	-10.0269
▁starts	-10.0277
▁reality	-10.0286
▁asking	-10.0288
▁dream	-10.029
▁winter	-10.0291
▁elected	-10.0292
▁restaurants	-10.0295
ful	-10.0299
▁markets	-10.0301
▁killing	-10.0303
▁legislation	-10.0305
▁scheduled	-10.0313
▁parties	-10.0319
▁nearby	-10.0325
▁smaller	-10.0329
▁2009	-10.033
den	-10.0333
▁fuel	-10.0336
▁Yes	-10.0345
▁Brian	-10.035
40	-10.0361
▁date	-10.0362
▁critics	-10.0365
▁measure	-10.0373
American	-10.0375
▁largely	-10.0378
▁champion	-10.038
▁continues	-10.0383
-10	-10.0386
▁blame	-10.0396
▁appeal	-10.0403
for	-10.0407
▁Matt	-10.041
▁offering	-10.0419
▁pain	-10.0423
▁victims	-10.0427
▁hired	-10.0438
▁helping	-10.044
▁farm	-10.0445
▁Philadelphia	-10.0447
▁Tony	-10.0449
▁Supreme	-10.0452
▁highest	-10.0459
▁justice	-10.0473
▁critical	-10.0476
▁evening	-10.0477
▁finish	-10.048
▁holding	-10.0482
▁sites	-10.049
▁grown	-10.0492
▁developed	-10.0493
▁NBA	-10.05
▁strategy	-10.0505
▁sides	-10.0509
▁gain	-10.0525
▁exactly	-10.0526
▁Pro	-10.0528
▁Kansas	-10.0532
▁ultimate	-10.0536
▁planned	-10.0544
▁tend	-10.0545
▁cream	-10.0546
ba	-10.0547
▁frequent	-10.055
▁balance	-10.0555
▁Gov	-10.056
▁Under	-10.056
▁Indian	-10.0562
▁Board	-10.0562
▁quick	-10.0572
▁discussion	-10.0579
▁suit	-10.0588
▁stoppe	-10.0589
▁doctor	-10.0593
▁primary	-10.0598
▁Arizona	-10.0608
▁argue	-10.0611
me	-10.0613
▁talks	-10.0624
▁CEO	-10.0624
▁Africa	-10.0626
▁collection	-10.0627
▁status	-10.0631
▁physical	-10.0636
ak	-10.0643
▁Theatre	-10.0649
▁driver	-10.065
▁seasons	-10.0655
▁cheese	-10.0671
▁opposition	-10.0674
▁Little	-10.0685
▁65	-10.0692
▁type	-10.0694
▁truck	-10.0698
▁beautiful	-10.0712
▁wild	-10.0717
▁levels	-10.0718
▁lunch	-10.0723
▁Men	-10.0724
per	-10.0725
▁realize	-10.0725
▁prosecutor	-10.0726
▁bigger	-10.0728
▁earned	-10.073
▁female	-10.0741
▁pieces	-10.0744
▁graduate	-10.0749
▁February	-10.0758
▁prepared	-10.0759
▁Mexican	-10.0761
▁advantage	-10.0764
inch	-10.0767
li	-10.0768
▁OF	-10.0769
▁mission	-10.0773
▁published	-10.0778
▁sister	-10.0793
▁Tim	-10.0809
▁match	-10.0809
▁stars	-10.081
▁decisions	-10.0811
▁ride	-10.0812
▁cross	-10.0821
▁Taylor	-10.0822
ol	-10.0826
▁1970	-10.0831
▁declined	-10.0834
▁studies	-10.0834
▁upon	-10.084
▁conflict	-10.0845
▁Hollywood	-10.0848
▁easily	-10.0849
▁millions	-10.0849
▁Mar	-10.0852
directly	-10.0852
▁musical	-10.0853
▁Cup	-10.0861
▁cook	-10.0866
▁artist	-10.0869
▁brief	-10.0869
▁Kennedy	-10.0869
▁skills	-10.0871
-9	-10.0884
▁explain	-10.0886
nd	-10.0892
▁effective	-10.0919
▁spread	-10.0921
▁fellow	-10.0921
ci	-10.0922
ah	-10.0926
▁Grand	-10.0926
▁Act	-10.0932
ard	-10.0938
im	-10.0944
▁influence	-10.0955
▁broke	-10.0956
▁telling	-10.0957
▁buying	-10.0961
▁Star	-10.0962
▁Pat	-10.0966
▁dog	-10.097
-4	-10.0982
▁produced	-10.0992
▁communities	-10.1003
▁filled	-10.1006
▁incident	-10.1008
▁progress	-10.1009
▁Arts	-10.101
▁section	-10.102
▁Lo	-10.1032
▁leaves	-10.1034
▁master	-10.1041
▁Age	-10.1043
like	-10.1044
▁advocate	-10.1044
▁41	-10.1044
▁responsible	-10.1051
▁percentage	-10.106
▁choose	-10.106
▁cable	-10.1063
▁Maybe	-10.1065
ber	-10.1072
▁meant	-10.1077
▁details	-10.1082
▁http	-10.1082
▁Lewis	-10.1088
▁male	-10.1089
ten	-10.1091
▁gay	-10.1102
▁associate	-10.1104
▁NBC	-10.1111
-1	-10.1111
▁crew	-10.1115
▁score	-10.1122
▁exchange	-10.1125
▁England	-10.1127
▁policies	-10.1133
▁44	-10.1142
▁direct	-10.1145
▁secret	-10.1151
▁jail	-10.1152
▁village	-10.1154
▁analyst	-10.1159
▁kill	-10.1161
▁grand	-10.1162
▁Allen	-10.1178
▁learning	-10.1182
▁Detroit	-10.1193
▁Un	-10.1197
▁fill	-10.1197
▁authorities	-10.1197
▁unit	-10.12
▁caused	-10.1202
▁retirement	-10.1209
▁Anderson	-10.1209
▁catch	-10.1217
▁worse	-10.122
▁finding	-10.1226
▁fit	-10.1228
▁Mayor	-10.1229
▁happens	-10.1229
▁consumer	-10.123
▁increasingly	-10.1238
▁Great	-10.1245
▁Community	-10.1254
▁sweet	-10.1255
▁Game	-10.1257
▁none	-10.1258
sh	-10.1265
▁walked	-10.1267
▁winner	-10.1273
▁responsibility	-10.1274
▁trees	-10.1281
▁talked	-10.1281
▁NCAA	-10.1286
▁accused	-10.1286
▁Four	-10.1297
▁veteran	-10.1301
back	-10.1302
▁medium	-10.1304
▁exist	-10.131
▁operating	-10.1312
▁factor	-10.1313
▁48	-10.1316
▁predict	-10.1328
▁Per	-10.1329
▁truth	-10.1332
▁begins	-10.1346
▁wave	-10.1348
▁analysts	-10.1349
▁glass	-10.1354
▁Time	-10.1356
▁corner	-10.1356
▁Car	-10.1359
▁Bell	-10.1362
▁material	-10.1362
▁injury	-10.1363
▁Van	-10.1366
▁clearly	-10.1366
style	-10.1371
▁Blue	-10.1372
▁museum	-10.1375
▁missed	-10.1376
▁notes	-10.1392
▁mix	-10.1393
▁$2	-10.1394
▁domestic	-10.1395
▁commission	-10.1404
▁Old	-10.141
▁Giants	-10.1412
▁fewer	-10.1416
▁conditions	-10.1417
▁herself	-10.1418
-3	-10.1422
ko	-10.1425
▁junior	-10.1426
▁shares	-10.1429
▁highly	-10.1429
▁column	-10.1432
▁cooking	-10.1433
▁closer	-10.1457
▁agents	-10.1458
▁adults	-10.1464
▁warn	-10.1465
mer	-10.1466
▁ideas	-10.1472
▁dangerous	-10.1472
▁fifth	-10.1482
▁flight	-10.1486
▁Seattle	-10.1492
▁Cal	-10.1492
▁path	-10.1492
▁Eric	-10.1495
▁worry	-10.1505
▁virtual	-10.1508
▁except	-10.1515
▁standing	-10.1519
▁1988	-10.152
▁accident	-10.1522
▁source	-10.1525
▁Asian	-10.1531
▁whatever	-10.1546
▁Diego	-10.1546
un	-10.155
▁fees	-10.1556
▁options	-10.1558
▁Italian	-10.1559
▁dry	-10.156
▁Ho	-10.1562
▁goals	-10.1566
▁ages	-10.1584
▁39	-10.1588
▁turning	-10.1598
▁strength	-10.1599
▁reporters	-10.16
▁tickets	-10.1602
▁showing	-10.1603
▁deliver	-10.1603
▁jury	-10.1609
▁era	-10.1627
ek	-10.1628
▁display	-10.1635
kin	-10.1645
▁Staff	-10.1658
▁urban	-10.166
-7	-10.167
▁covered	-10.1672
▁compete	-10.1684
▁Life	-10.1694
▁Springs	-10.1697
▁setting	-10.1699
▁Foundation	-10.1709
class	-10.1712
au	-10.1712
▁approved	-10.1712
▁soft	-10.1723
▁behavior	-10.1727
▁authority	-10.1732
▁ex	-10.1734
▁faith	-10.1739
▁clients	-10.1741
▁2012	-10.1744
▁counter	-10.1754
▁Education	-10.1767
▁CBS	-10.1778
▁Ko	-10.1784
▁emergency	-10.1796
▁freedom	-10.18
▁Joseph	-10.1811
▁telephone	-10.1816
▁famous	-10.1826
▁Afghanistan	-10.1835
▁300	-10.1839
ni	-10.184
▁arrest	-10.1845
▁favor	-10.1846
▁Carter	-10.1848
▁finance	-10.1851
▁Lu	-10.1861
▁opinion	-10.1864
▁keeping	-10.1865
▁afford	-10.1868
▁surgery	-10.1877
▁university	-10.1879
▁cards	-10.19
▁Drive	-10.1903
ho	-10.1905
▁intelligence	-10.1913
▁immigrants	-10.1923
▁rose	-10.1925
▁Jewish	-10.1929
▁Each	-10.1931
▁teaching	-10.1934
▁prime	-10.1934
▁pull	-10.1935
▁normal	-10.1942
▁easier	-10.1942
ED	-10.1943
▁prove	-10.1952
▁reveal	-10.1953
▁sat	-10.1962
▁43	-10.1984
▁active	-10.1984
▁Pacific	-10.1995
▁attend	-10.1997
▁instance	-10.2006
▁wonder	-10.2014
ell	-10.202
▁academic	-10.2022
▁sun	-10.2027
▁loans	-10.203
▁Hospital	-10.204
▁plenty	-10.204
▁Ray	-10.2043
▁handle	-10.2046
▁brand	-10.2048
▁honor	-10.2059
▁greatest	-10.2061
▁documents	-10.2063
▁spoke	-10.2063
▁enforcement	-10.2065
▁firms	-10.2068
▁pulled	-10.2071
▁youth	-10.2072
▁weather	-10.2081
▁purpose	-10.2082
▁stadium	-10.2082
▁Daniel	-10.2084
▁Iowa	-10.2087
▁pilot	-10.2089
▁presence	-10.2091
▁creating	-10.2095
▁Division	-10.2103
end	-10.2106
ford	-10.2112
ex	-10.2115
▁passing	-10.2117
▁shopping	-10.2119
▁Office	-10.2126
▁picked	-10.2129
▁bread	-10.213
▁rare	-10.2138
▁Moore	-10.2142
▁competitive	-10.2146
▁fired	-10.2158
▁seats	-10.2162
▁software	-10.2162
▁yesterday	-10.2164
▁committed	-10.2164
▁condition	-10.2168
▁Coach	-10.2172
▁draw	-10.2177
▁proud	-10.2182
▁relations	-10.2183
▁Coast	-10.219
▁Broncos	-10.2207
▁Family	-10.2208
▁vision	-10.222
▁items	-10.2222
▁tablespoons	-10.2227
▁bills	-10.2228
▁---	-10.2235
gotten	-10.2242
▁2011	-10.2247
round	-10.2265
▁cultural	-10.2266
▁ticket	-10.2267
▁window	-10.2271
▁advance	-10.2274
▁films	-10.2274
▁familiar	-10.2279
▁attitude	-10.2296
▁unusual	-10.2298
▁fan	-10.2305
▁arms	-10.2306
▁Government	-10.2307
▁essential	-10.2316
▁wind	-10.2316
▁values	-10.2318
▁plane	-10.2321
▁operation	-10.2336
ow	-10.2351
▁loan	-10.2351
ial	-10.2353
▁tie	-10.2359
▁Larry	-10.2366
▁arm	-10.2366
▁patient	-10.2367
▁touch	-10.2372
▁enter	-10.2378
▁rising	-10.2379
▁profit	-10.238
▁pop	-10.2382
▁rent	-10.2386
▁request	-10.239
▁$10	-10.2399
▁Sometimes	-10.24
▁mass	-10.2405
▁1,000	-10.241
▁Ed	-10.2412
▁changing	-10.2413
▁Henry	-10.2425
▁owned	-10.2426
▁missing	-10.2428
▁Ar	-10.2428
▁Jersey	-10.245
▁Gulf	-10.2452
▁suggested	-10.2461
▁steps	-10.2467
▁Meanwhi	-10.2468
▁Ken	-10.2469
▁Jose	-10.2479
▁tiny	-10.2485
▁Howard	-10.2497
▁Arab	-10.2503
long	-10.2505
▁option	-10.2511
▁welcome	-10.2514
io	-10.2521
▁wish	-10.2544
▁variety	-10.2544
▁advertising	-10.2546
▁Jerry	-10.255
▁secretary	-10.255
▁1/4	-10.2557
ize	-10.2557
completely	-10.2559
▁repeated	-10.2562
▁bond	-10.2566
5,000	-10.2566
▁provides	-10.2575
▁song	-10.2578
ee	-10.258
▁loved	-10.2592
▁losses	-10.2592
▁elections	-10.2593
ina	-10.2594
▁meetings	-10.2596
▁Canada	-10.2596
▁$5	-10.26
▁aggressive	-10.2602
▁Baltimore	-10.2603
▁assault	-10.2607
▁arts	-10.2607
▁GOP	-10.2629
▁Oklahoma	-10.2632
▁die	-10.2641
▁broken	-10.2646
▁Sox	-10.2646
▁Korea	-10.2649
▁10-	-10.2651
▁Oh	-10.2656
▁faces	-10.2659
op	-10.2662
ster	-10.267
▁Rose	-10.2674
▁row	-10.2684
▁OK	-10.2684
▁protection	-10.2685
▁walking	-10.2686
▁hits	-10.2689
▁Science	-10.2689
▁Top	-10.269
▁adviser	-10.2693
▁Woods	-10.2694
ger	-10.2697
▁watched	-10.2706
▁rain	-10.271
▁Na	-10.2716
▁reporter	-10.2716
▁athletes	-10.2717
▁exercise	-10.2719
▁healthy	-10.2722
▁direction	-10.2723
▁foot	-10.2723
▁al	-10.2724
▁screen	-10.2729
▁Sports	-10.273
▁birth	-10.2748
▁fly	-10.275
hi	-10.2751
▁cents	-10.2752
▁activist	-10.2752
▁supply	-10.2754
▁Missouri	-10.2754
▁poll	-10.2754
▁task	-10.2756
▁Columbia	-10.2759
▁sentence	-10.276
▁songs	-10.2763
▁Series	-10.2766
▁Gary	-10.2771
▁India	-10.2776
▁visitors	-10.2795
▁discuss	-10.2803
▁perform	-10.2808
▁3-	-10.2808
▁shown	-10.2818
▁pot	-10.282
▁brain	-10.2823
▁river	-10.2824
down	-10.2829
▁slightly	-10.283
▁Cardinals	-10.2833
▁turns	-10.2841
305	-10.2841
▁relatively	-10.2845
▁ban	-10.2849
▁survive	-10.2851
▁Mrs	-10.2854
▁ABC	-10.2858
▁pool	-10.2862
▁minister	-10.2863
▁Children	-10.2864
▁Love	-10.2867
▁failure	-10.2868
▁con	-10.2871
▁stands	-10.2877
▁confidence	-10.2886
▁47	-10.2888
▁rooms	-10.2888
▁respond	-10.289
▁Clark	-10.2893
▁Festival	-10.2896
▁recalled	-10.2897
▁gather	-10.2899
▁tree	-10.2902
▁completed	-10.2904
▁degrees	-10.2907
▁Theater	-10.291
▁Ron	-10.2912
tic	-10.2912
▁Vietnam	-10.2918
ES	-10.2926
▁interesting	-10.2927
▁46	-10.2929
well	-10.2929
▁Mass	-10.2932
▁aside	-10.2936
▁operate	-10.2954
▁1960	-10.2957
▁entertainment	-10.2959
▁Field	-10.2966
▁arrested	-10.2967
▁menu	-10.297
▁succeed	-10.297
▁Sea	-10.2974
▁council	-10.2979
▁Academy	-10.2983
▁package	-10.2997
taught	-10.2998
▁sought	-10.3003
▁replace	-10.3009
▁Company	-10.3016
▁managed	-10.3017
▁Final	-10.3027
▁sources	-10.3027
▁Maryland	-10.3027
con	-10.303
▁machine	-10.303
▁combined	-10.303
▁Show	-10.3031
▁comfortable	-10.3037
▁Research	-10.304
▁accounts	-10.3041
▁limit	-10.305
▁Next	-10.3053
point	-10.3054
▁unles	-10.3062
▁Business	-10.3064
▁tests	-10.3082
▁Minnesota	-10.3083
▁Cleveland	-10.3089
▁Your	-10.309
▁passes	-10.3091
▁note	-10.3095
▁Gen	-10.3095
▁hop	-10.3097
▁west	-10.3101
▁ruling	-10.311
▁Andrew	-10.3111
▁guess	-10.3112
▁acres	-10.3121
300	-10.3128
12	-10.3131
▁Ma	-10.3132
▁400	-10.3133
za	-10.314
va	-10.3146
▁Social	-10.3155
ver	-10.3157
▁album	-10.3161
▁advice	-10.3168
▁Best	-10.3174
▁background	-10.3175
▁Law	-10.3191
▁historic	-10.3191
▁cups	-10.3197
▁wear	-10.3208
▁giant	-10.3209
▁Kelly	-10.3212
▁cutting	-10.3215
▁struck	-10.3216
▁Price	-10.3219
▁surprise	-10.3223
▁flat	-10.3232
▁Force	-10.3233
▁worried	-10.3234
▁session	-10.3235
-8	-10.3235
▁surface	-10.3245
▁coffee	-10.3247
▁Ka	-10.3248
▁solid	-10.3251
▁alternative	-10.3251
▁bright	-10.3252
▁brown	-10.3252
▁admit	-10.3252
ck	-10.3254
▁adult	-10.3258
▁engineer	-10.3261
▁politicians	-10.3265
▁Orleans	-10.3265
▁dad	-10.3271
▁Palestinian	-10.3277
▁longtime	-10.328
ut	-10.3282
▁liberal	-10.3292
che	-10.3294
▁knee	-10.3296
▁72	-10.3301
▁describ	-10.3303
▁classic	-10.3306
01	-10.331
▁corn	-10.331
▁promote	-10.3316
ney	-10.3322
▁views	-10.3324
▁stood	-10.3325
▁affect	-10.3328
▁Stadium	-10.3332
▁Back	-10.3333
game	-10.3345
lan	-10.3349
▁determine	-10.3357
▁interests	-10.3362
car	-10.3366
▁Du	-10.3368
▁facility	-10.3369
▁decline	-10.337
▁spirit	-10.3378
▁playoff	-10.3386
▁Robinson	-10.3389
▁Di	-10.3391
▁garlic	-10.3393
▁employee	-10.3393
▁discovered	-10.3395
▁fully	-10.3401
▁researcher	-10.3402
▁Services	-10.3403
▁insist	-10.3404
mile	-10.3418
▁plastic	-10.3427
▁Rick	-10.343
ti	-10.343
▁Golden	-10.3452
▁Market	-10.3453
AL	-10.3453
▁Ca	-10.3455
di	-10.3456
▁expert	-10.3463
▁Stone	-10.3463
▁novel	-10.3463
▁yourself	-10.3464
▁garden	-10.3468
▁accepted	-10.3469
▁occasional	-10.3474
▁tight	-10.3481
▁letters	-10.3496
▁proper	-10.3502
▁headed	-10.3503
▁shape	-10.3503
gt	-10.3507
rd	-10.3512
▁pair	-10.3514
▁Paris	-10.3514
▁Patrick	-10.3515
▁location	-10.3515
▁unique	-10.3519
▁basis	-10.3521
▁Society	-10.3523
▁Ten	-10.3527
▁estimate	-10.3528
▁Dave	-10.3534
▁mental	-10.354
▁Britain	-10.3543
▁Class	-10.3543
▁Judge	-10.3549
▁oven	-10.3551
▁zone	-10.3555
▁Land	-10.356
▁nor	-10.3567
▁activity	-10.3569
▁kick	-10.3569
ron	-10.3573
▁absolute	-10.3575
▁Walker	-10.3576
▁Ta	-10.3579
▁neighbors	-10.358
▁roll	-10.358
▁Music	-10.3581
▁animals	-10.3586
▁fashion	-10.3586
▁Spanish	-10.3587
▁jump	-10.359
▁bed	-10.3597
▁wearing	-10.36
▁tied	-10.3601
▁Year	-10.3605
▁sponsor	-10.3606
▁fruit	-10.361
▁suffered	-10.3616
▁playoffs	-10.3619
▁heads	-10.3623
▁purchase	-10.3623
▁injuries	-10.3624
▁scores	-10.3625
▁transportation	-10.3626
▁feels	-10.3627
▁Manhattan	-10.3628
▁facilities	-10.3628
▁Are	-10.3628
▁lawsuit	-10.363
run	-10.3632
.50	-10.3641
▁deficit	-10.3642
ists	-10.3647
▁concept	-10.3652
-2	-10.3654
▁juice	-10.3656
▁content	-10.3662
▁bid	-10.3667
▁parent	-10.3668
fi	-10.3671
ability	-10.3674
▁Minister	-10.3676
▁chain	-10.3677
▁drama	-10.3681
▁stations	-10.3681
▁supporters	-10.3683
▁Olympics	-10.3701
▁Secretary	-10.3705
▁retail	-10.3705
▁Lincoln	-10.3709
▁east	-10.371
▁olive	-10.3713
▁boat	-10.3717
▁Berkeley	-10.3718
▁payments	-10.3723
▁Second	-10.3723
▁protest	-10.3725
▁sleep	-10.3727
▁opportunities	-10.3729
focused	-10.3731
▁Stephen	-10.3734
creased	-10.3737
▁auto	-10.3738
▁Such	-10.3744
chi	-10.3747
▁mark	-10.3748
▁photograph	-10.3756
▁Reagan	-10.3756
▁fee	-10.3758
▁lots	-10.3762
▁tru	-10.3765
▁skin	-10.3765
sen	-10.3769
▁equal	-10.3771
▁Tour	-10.3775
▁wins	-10.3778
▁Disney	-10.3784
▁walls	-10.3794
▁Others	-10.3796
▁vehicles	-10.3804
▁welfare	-10.3804
▁snow	-10.3805
▁Democrat	-10.381
▁Ra	-10.381
▁smart	-10.3817
▁facing	-10.3822
▁anybody	-10.3825
▁Kim	-10.3833
▁surprised	-10.3839
▁reputation	-10.3841
▁nonprofit	-10.3841
▁mom	-10.3844
▁island	-10.3851
hrew	-10.3853
▁Thompson	-10.3861
▁Wood	-10.3865
▁approval	-10.3868
▁volunteer	-10.3874
▁Miss	-10.3877
▁religion	-10.3878
▁concert	-10.3879
▁Conference	-10.3882
▁plate	-10.3887
▁consecutive	-10.3895
▁51	-10.3899
▁danger	-10.3903
▁Hotel	-10.3904
▁pitch	-10.3907
▁increasing	-10.3913
▁salary	-10.3918
▁Mac	-10.3919
▁Defense	-10.392
▁stocks	-10.392
▁forget	-10.3921
▁hate	-10.3921
▁immigration	-10.3937
▁length	-10.394
▁chemical	-10.3949
▁54	-10.3953
-13	-10.3954
▁storm	-10.3957
▁Games	-10.3957
ub	-10.3962
▁page	-10.3965
ER	-10.3971
▁Northern	-10.3973
▁Journal	-10.398
▁lawmakers	-10.3987
▁holiday	-10.3992
voted	-10.3993
▁minority	-10.3998
▁refus	-10.4008
▁determined	-10.4008
▁mixed	-10.4009
▁collect	-10.4013
▁noted	-10.4016
▁wonderful	-10.4024
▁Islamic	-10.4026
em	-10.4026
▁AIDS	-10.4029
▁trading	-10.4029
▁Tennessee	-10.4033
▁Jason	-10.4047
▁Bears	-10.4047
▁drove	-10.405
ated	-10.4059
▁resident	-10.4059
▁chopped	-10.4061
▁award	-10.4066
▁seconds	-10.4066
▁currently	-10.4069
▁Anthony	-10.4069
▁trend	-10.4072
▁dealing	-10.4075
▁actor	-10.4075
▁defend	-10.4077
▁warning	-10.4084
entered	-10.4086
▁Cook	-10.4096
▁abortion	-10.4097
▁Stanford	-10.4099
ties	-10.411
▁chef	-10.4112
▁neighbor	-10.4113
▁Gold	-10.4113
▁farmers	-10.4114
▁Broadway	-10.4118
▁En	-10.4124
▁apply	-10.4126
▁Am	-10.4127
j	-10.4129
▁beer	-10.4132
▁developing	-10.4139
▁industrial	-10.4145
▁pushed	-10.4154
▁metro	-10.4161
www	-10.4166
▁panel	-10.4171
▁application	-10.4174
▁counties	-10.4177
▁narrow	-10.4177
▁Square	-10.418
berg	-10.4182
▁Forest	-10.4185
▁Muslim	-10.4186
▁mere	-10.4187
▁violent	-10.4187
▁routine	-10.4193
▁attended	-10.4198
▁teach	-10.4216
▁folks	-10.4218
▁consultant	-10.4219
▁Camp	-10.4221
▁tradition	-10.4225
min	-10.4228
▁solution	-10.4229
▁testing	-10.4236
▁aware	-10.4241
▁52	-10.4246
▁measures	-10.4249
▁massive	-10.4249
▁mixture	-10.4253
▁clothes	-10.4256
ach	-10.4259
▁assets	-10.4271
▁knowledge	-10.4272
▁settlement	-10.4276
▁Rice	-10.4277
▁votes	-10.4278
▁initiative	-10.4281
▁leads	-10.4283
▁headquarters	-10.4284
▁Food	-10.4287
wa	-10.4288
▁severe	-10.4295
▁miss	-10.4299
▁Perha	-10.4302
▁apparently	-10.4306
▁grade	-10.4306
▁1987	-10.4308
▁fiscal	-10.4312
306	-10.4317
▁Alabama	-10.4322
ski	-10.4324
▁scientists	-10.4328
▁guilty	-10.4332
ja	-10.4338
▁mountain	-10.4339
▁criticism	-10.4342
▁reduced	-10.4343
▁recalls	-10.4346
▁southern	-10.4351
▁relief	-10.4351
ick	-10.4354
▁photo	-10.4358
▁offices	-10.4363
▁raising	-10.4369
han	-10.4374
▁positions	-10.4379
▁economist	-10.4383
▁contributed	-10.4391
▁Administration	-10.4394
▁effects	-10.4396
▁Eastern	-10.4399
ship	-10.4405
all	-10.4407
▁consistent	-10.4408
ance	-10.441
▁commitment	-10.4412
▁Baker	-10.4414
▁waste	-10.4415
▁dish	-10.442
▁Stewart	-10.443
port	-10.4445
▁bag	-10.4447
ov	-10.4448
▁$3	-10.4449
▁**	-10.4452
▁army	-10.4458
▁actions	-10.4466
▁smile	-10.4468
hu	-10.447
▁Bruce	-10.4472
▁drivers	-10.4478
▁Li	-10.4483
▁Nations	-10.4486
▁1986	-10.4491
▁worker	-10.4491
▁wood	-10.4493
▁boost	-10.4496
▁realized	-10.4498
▁Turner	-10.4503
▁Collins	-10.4507
▁rookie	-10.4509
▁shots	-10.4517
Voice	-10.452
▁Water	-10.4521
▁returns	-10.4526
▁intense	-10.4527
▁removed	-10.4531
▁neighborhoods	-10.4533
▁begun	-10.4544
▁Spring	-10.4552
▁editorial	-10.4552
▁definitely	-10.4553
▁vast	-10.4555
▁Director	-10.4557
▁shut	-10.4563
▁treat	-10.4565
▁ethnic	-10.4566
▁AT	-10.4566
▁expansion	-10.4576
▁minute	-10.4579
▁route	-10.458
▁studio	-10.4587
▁thick	-10.4589
▁Take	-10.4595
mon	-10.4598
▁53	-10.4614
▁Medical	-10.4614
▁Gore	-10.4617
▁challenges	-10.4624
▁earnings	-10.4628
▁Gwinnett	-10.4629
▁injured	-10.4629
▁milk	-10.4629
▁institutions	-10.463
▁possibilit	-10.4634
▁66	-10.4635
▁net	-10.4643
▁recruit	-10.4644
▁Redskins	-10.465
ett	-10.465
▁Pennsylvania	-10.4652
▁bomb	-10.4653
▁promise	-10.4653
▁sees	-10.4656
▁Cubs	-10.4657
▁principal	-10.4669
▁expand	-10.467
▁Out	-10.4675
▁Earth	-10.4676
▁chair	-10.4678
▁comedy	-10.4679
▁emotional	-10.468
▁dozens	-10.468
▁images	-10.4691
▁yes	-10.4694
▁56	-10.4695
▁limits	-10.4696
▁estimat	-10.4696
minute	-10.47
▁harder	-10.4704
water	-10.4709
▁Saudi	-10.471
▁customer	-10.4711
▁hitting	-10.4713
▁savings	-10.4722
▁nations	-10.4726
▁appearance	-10.4727
▁festival	-10.4741
▁impossible	-10.4742
head	-10.4743
▁franchise	-10.4745
▁prepare	-10.4751
▁earn	-10.4757
▁sixth	-10.4758
▁ill	-10.4761
▁opponents	-10.4765
▁association	-10.4769
▁ensure	-10.477
▁anymore	-10.477
▁individuals	-10.4772
▁convict	-10.4773
▁None	-10.4775
▁scenes	-10.4776
▁deals	-10.4777
ably	-10.4779
11	-10.4779
▁pages	-10.4788
▁helps	-10.4791
▁Several	-10.4792
▁Yankees	-10.4796
▁touchdown	-10.4799
▁multiple	-10.4807
▁hang	-10.4808
▁widely	-10.4811
▁Memorial	-10.4813
15	-10.4817
▁speaking	-10.4823
▁units	-10.4824
▁listen	-10.4845
▁mortgage	-10.4846
ker	-10.4852
▁drawing	-10.4854
ino	-10.4856
going	-10.4858
▁hospitals	-10.486
▁shared	-10.4861
▁ship	-10.4866
▁71	-10.4876
▁producer	-10.4879
▁Mississippi	-10.4879
▁happening	-10.4881
▁estimates	-10.4881
▁escape	-10.4889
▁desire	-10.4899
▁super	-10.49
▁6-3	-10.4902
▁cap	-10.4903
▁Team	-10.4906
▁negative	-10.4909
▁remove	-10.4909
▁recession	-10.4916
▁districts	-10.4917
▁launched	-10.4921
▁moral	-10.4927
▁soccer	-10.4927
▁struggling	-10.4927
▁Navy	-10.4928
▁broad	-10.493
▁rice	-10.4931
que	-10.4935
▁foundation	-10.4941
▁split	-10.4944
ization	-10.4954
▁rural	-10.4967
▁tackle	-10.4968
▁dramatic	-10.4979
▁Saddam	-10.4985
▁honest	-10.4985
▁Roger	-10.499
▁57	-10.4991
▁recognize	-10.4993
star	-10.4993
▁delay	-10.4993
▁Jay	-10.4999
▁inches	-10.5001
▁Hu	-10.5003
▁acting	-10.5005
▁busy	-10.5005
▁metal	-10.5007
▁denied	-10.5008
▁broadcast	-10.501
▁thinks	-10.5012
▁structure	-10.5017
ever	-10.5018
▁assume	-10.502
▁150	-10.5021
▁keeps	-10.5025
▁alive	-10.5026
▁contracts	-10.5027
▁stretch	-10.503
▁Source	-10.5038
▁Associat	-10.5038
▁Greg	-10.5038
opposed	-10.504
▁centers	-10.5055
▁minor	-10.5059
▁reaction	-10.506
-$	-10.5063
▁Night	-10.5066
▁memory	-10.5067
▁pace	-10.5068
▁calories	-10.5069
▁eating	-10.5069
▁portion	-10.5074
▁managers	-10.508
▁leg	-10.5086
18	-10.5089
▁Har	-10.509
v	-10.509
▁otherwise	-10.5094
▁shoulder	-10.5095
▁gift	-10.5096
▁replaced	-10.51
▁elsewhere	-10.51
▁dining	-10.5101
▁Ross	-10.5105
▁Italy	-10.5117
-12	-10.5118
▁noon	-10.5121
▁egg	-10.5123
half	-10.5125
AN	-10.5132
▁meaning	-10.5137
▁crash	-10.514
▁suicide	-10.5152
▁sick	-10.5152
▁occurr	-10.5153
▁practices	-10.5157
▁medal	-10.5158
97	-10.5166
ru	-10.5167
▁Asia	-10.5176
▁contrast	-10.5178
▁victim	-10.5184
▁WR	-10.5188
▁treated	-10.5191
▁Adams	-10.5202
▁Point	-10.5205
▁cake	-10.5212
▁Ann	-10.5213
▁Key	-10.5216
▁combat	-10.5222
▁Village	-10.5226
ordered	-10.5236
▁belief	-10.5237
▁Korean	-10.5241
▁northern	-10.5242
▁la	-10.5249
▁Las	-10.5249
▁website	-10.5256
▁FBI	-10.5259
board	-10.5261
month	-10.5261
▁Barry	-10.5261
.95	-10.5265
▁Mc	-10.5267
▁investigators	-10.5267
▁apart	-10.5268
▁code	-10.5269
▁athletic	-10.5271
▁IN	-10.5279
▁moves	-10.5283
Star	-10.5284
▁Campbell	-10.5294
▁identify	-10.5299
▁Morgan	-10.5299
▁creative	-10.5302
▁Utah	-10.5302
placed	-10.5307
▁opera	-10.5309
*	-10.5309
▁minimum	-10.5311
▁Susan	-10.5314
▁flavor	-10.5316
▁Se	-10.5316
▁analysis	-10.5319
▁appropriate	-10.5323
▁scoring	-10.5324
▁refuse	-10.5326
▁identified	-10.5328
▁drink	-10.5332
▁beef	-10.5333
▁climate	-10.5333
▁Phil	-10.5333
▁Antonio	-10.5333
ating	-10.5335
▁Pakistan	-10.5337
▁6-2	-10.534
▁62	-10.5343
▁distance	-10.5346
93	-10.5349
▁related	-10.5357
▁prompt	-10.5359
▁Part	-10.536
▁improved	-10.5361
▁aspect	-10.5362
▁dishes	-10.5363
▁ppg	-10.5365
▁readers	-10.5368
▁democracy	-10.5368
▁Nick	-10.5383
▁tea	-10.5385
▁68	-10.5387
▁doors	-10.5391
200	-10.5393
▁hole	-10.5396
▁neither	-10.54
10	-10.5403
▁Del	-10.5408
▁sounds	-10.5416
▁Harvard	-10.5417
▁correct	-10.5417
▁dollar	-10.5418
▁founder	-10.5419
promised	-10.5419
▁pictures	-10.5423
law	-10.5431
▁flour	-10.5431
▁Douglas	-10.5434
▁Information	-10.5439
▁voting	-10.5439
▁faced	-10.544
room	-10.5441
▁deputy	-10.5444
▁Orange	-10.5445
▁obvious	-10.5451
▁streak	-10.5459
▁understanding	-10.5466
her	-10.5477
care	-10.5479
▁achieve	-10.5479
▁64	-10.548
-20	-10.5484
▁Mitchell	-10.5486
▁Fund	-10.5489
▁empty	-10.5493
▁Braves	-10.5495
▁roads	-10.5503
▁involve	-10.5503
▁surprising	-10.5507
▁formal	-10.551
▁intended	-10.551
▁existing	-10.5514
▁pitcher	-10.5524
▁collapse	-10.5528
ran	-10.553
▁2013	-10.5532
▁Kentucky	-10.5532
▁Look	-10.5536
free	-10.5538
▁introduc	-10.5542
▁celebrate	-10.5545
▁shoot	-10.5561
05	-10.5564
▁crimes	-10.5565
▁Bridge	-10.5565
▁witness	-10.5571
▁anywhere	-10.5575
▁heavily	-10.5579
99	-10.5582
▁interviews	-10.5585
19	-10.5586
▁spokeswoman	-10.5589
▁Apple	-10.5592
▁profits	-10.5592
▁cell	-10.5605
▁landscape	-10.5606
▁closing	-10.5608
▁Fire	-10.5609
▁58	-10.5611
▁sub	-10.5612
▁coaching	-10.5615
ano	-10.5625
pound	-10.5626
▁writers	-10.563
▁scandal	-10.5633
▁Ri	-10.5633
▁Perry	-10.5635
▁beach	-10.5635
▁sheet	-10.5636
▁fishing	-10.5646
▁drinking	-10.5651
▁PG	-10.5659
▁prefer	-10.5662
▁stick	-10.5663
▁receiver	-10.5663
▁eggs	-10.5667
▁negotiations	-10.5667
16	-10.5669
▁consult	-10.5671
▁organized	-10.5672
▁800	-10.5673
▁Has	-10.5673
▁suddenly	-10.5677
▁ads	-10.568
▁Human	-10.5683
om	-10.5685
▁67	-10.5687
ana	-10.5689
▁connection	-10.569
▁core	-10.5694
07	-10.57
▁nobody	-10.57
sky	-10.5708
▁license	-10.5712
▁1985	-10.5716
▁Garden	-10.5718
▁Monitor	-10.5723
era	-10.5727
▁Moscow	-10.5728
▁69	-10.5729
▁afraid	-10.573
▁ends	-10.5732
▁Energy	-10.5733
qui	-10.5735
▁coordinator	-10.5736
▁Project	-10.5738
13	-10.5739
▁Cobb	-10.5741
▁Barbara	-10.5743
▁ST	-10.5762
▁secure	-10.5762
possibly	-10.5763
▁drawn	-10.5763
▁horse	-10.5767
▁76	-10.5774
▁involving	-10.5778
▁rail	-10.5779
▁procedure	-10.5783
▁newspapers	-10.5786
▁flow	-10.5796
▁explained	-10.58
▁rebel	-10.5817
▁Five	-10.5818
▁chocolate	-10.5818
▁imagine	-10.5823
▁Ali	-10.5824
▁Oak	-10.5825
▁59	-10.5825
▁lemon	-10.5828
▁Nor	-10.5849
▁visited	-10.5852
▁declared	-10.5853
▁mail	-10.5854
▁Ku	-10.5859
▁uniform	-10.5859
▁camera	-10.5864
▁Vegas	-10.5865
17	-10.587
▁extend	-10.5881
▁file	-10.5887
▁manufacturer	-10.5888
ot	-10.59
▁Medicare	-10.5902
▁Alex	-10.5905
▁AND	-10.5906
▁73	-10.5912
fe	-10.5925
▁Capitol	-10.5932
▁upset	-10.5935
▁colleagues	-10.5939
▁alcohol	-10.5946
▁stress	-10.5951
ions	-10.5952
ny	-10.5953
▁racial	-10.5957
▁hip	-10.5958
ified	-10.5962
▁12-	-10.5964
▁yellow	-10.5964
▁directed	-10.5964
century	-10.5969
▁guns	-10.597
▁Rev	-10.5977
▁brothers	-10.5981
lu	-10.5987
▁grass	-10.599
ology	-10.5993
▁agenda	-10.5999
izing	-10.6
▁Con	-10.6002
▁experienced	-10.6004
▁f	-10.6005
▁terrorist	-10.6006
▁choices	-10.6007
▁Tri	-10.6013
▁rival	-10.6013
▁command	-10.6013
top	-10.6013
▁6-4	-10.6014
▁hardly	-10.6015
mar	-10.6018
ab	-10.6019
cha	-10.602
▁homeless	-10.6028
▁computers	-10.6035
▁415	-10.6035
▁dogs	-10.6036
25	-10.6039
▁Latin	-10.6041
▁Fair	-10.6043
▁Indiana	-10.6044
▁medicine	-10.6046
▁regime	-10.6051
▁pocket	-10.6053
▁Cincinnati	-10.6053
▁usual	-10.6058
▁complaints	-10.6059
▁airline	-10.606
▁Metro	-10.6062
▁poverty	-10.6064
▁angry	-10.6064
▁Did	-10.6066
▁faster	-10.607
RO	-10.607
▁meal	-10.6073
▁personnel	-10.6074
use	-10.6078
▁barely	-10.6085
▁supported	-10.6087
▁immediate	-10.6088
tor	-10.6089
▁Atlantic	-10.6089
represented	-10.6094
jo	-10.6096
▁Any	-10.6097
ong	-10.6098
▁Mill	-10.6104
ik	-10.6106
▁falling	-10.6113
▁ski	-10.6118
▁networks	-10.6118
▁partners	-10.6118
▁grant	-10.6119
▁Marshall	-10.6124
▁joint	-10.6125
▁penalty	-10.613
▁Oscar	-10.6136
▁debut	-10.6143
▁expectations	-10.6156
▁publicly	-10.6161
▁chose	-10.6162
▁courts	-10.6165
▁buyers	-10.6165
▁1984	-10.6166
▁Wisconsin	-10.6168
▁internal	-10.6171
▁fix	-10.6178
▁guide	-10.6179
▁guests	-10.618
▁6-1	-10.618
▁slowly	-10.6181
▁comments	-10.6184
▁bear	-10.6191
▁Chief	-10.6195
ons	-10.6199
▁models	-10.6201
▁crack	-10.6202
▁pushing	-10.6209
roughly	-10.621
▁Jon	-10.6211
▁enormous	-10.622
▁Mount	-10.6228
▁breakfast	-10.6228
ble	-10.6231
▁stolen	-10.6232
▁threatened	-10.6233
ft	-10.6234
▁rarely	-10.6238
▁sad	-10.6241
▁combination	-10.6244
managing	-10.6245
-19	-10.6246
▁recipe	-10.6249
63	-10.6249
▁Grant	-10.6254
▁mine	-10.6255
▁Development	-10.626
▁74	-10.6263
▁guarantee	-10.6268
ita	-10.6271
▁Right	-10.6274
▁specialist	-10.6275
▁lights	-10.6281
▁carrying	-10.6286
▁paint	-10.6286
▁serves	-10.6291
▁congressional	-10.6291
▁closely	-10.6293
▁Parker	-10.6295
▁Arkansas	-10.6302
▁armed	-10.6303
▁via	-10.6306
▁63	-10.6312
▁trips	-10.6316
▁TODAY	-10.632
▁digital	-10.6326
▁404-	-10.6328
▁Bi	-10.6331
14	-10.6339
▁exhibition	-10.6343
▁Nelson	-10.6345
▁Sha	-10.6346
▁Morris	-10.635
▁nationwide	-10.635
▁Oregon	-10.6352
▁acknowledge	-10.6353
▁argument	-10.6355
▁regulations	-10.636
▁Cross	-10.6361
▁dress	-10.6363
▁freshman	-10.6364
▁Hussein	-10.6368
03	-10.6368
coming	-10.6368
▁Ke	-10.637
▁10,000	-10.6371
▁Brooklyn	-10.6374
▁1950	-10.6377
▁parks	-10.6377
▁85	-10.6379
▁Baghdad	-10.6384
▁Duke	-10.6386
red	-10.6389
▁launch	-10.6391
▁steel	-10.6392
▁veterans	-10.6393
▁defeat	-10.6399
▁salad	-10.6401
▁Sa	-10.6413
making	-10.6416
▁Capital	-10.6419
▁capacity	-10.6421
▁Warner	-10.6422
▁wake	-10.6426
▁Channel	-10.6431
▁mistake	-10.6433
▁NEW	-10.6435
gen	-10.6437
▁tonight	-10.644
▁Massachusetts	-10.6443
▁laid	-10.645
58	-10.6454
▁fraud	-10.6459
▁previously	-10.6461
▁Way	-10.6466
▁disaster	-10.6467
mann	-10.6469
called	-10.6469
▁acknowledged	-10.6472
bi	-10.6475
▁Indeed	-10.6476
acre	-10.6479
ette	-10.648
▁Prime	-10.6481
▁venture	-10.6491
▁grams	-10.6494
▁sharp	-10.6494
▁DE	-10.6497
▁Wright	-10.6499
▁soul	-10.6509
▁Pentagon	-10.6511
related	-10.6515
▁Power	-10.652
-11	-10.653
▁featuring	-10.6532
▁Simpson	-10.6535
▁Network	-10.6536
▁61	-10.6536
▁users	-10.6536
▁ring	-10.654
view	-10.6544
▁See	-10.6545
▁Hills	-10.6546
▁perspective	-10.6549
▁transfer	-10.6549
▁vacation	-10.6556
▁coalition	-10.6557
week	-10.6559
wise	-10.656
ze	-10.6562
▁convention	-10.6564
ez	-10.657
▁par	-10.6571
▁mouth	-10.6574
▁min	-10.6574
▁increases	-10.6578
EL	-10.6579
▁coast	-10.6581
▁boom	-10.6581
state	-10.6584
▁teen	-10.6584
▁$4	-10.6589
▁dismiss	-10.6595
▁embrace	-10.6595
▁Irish	-10.6595
▁passengers	-10.66
▁liked	-10.6601
▁crop	-10.6607
▁primari	-10.6616
▁Boulder	-10.6618
▁flying	-10.6618
▁transform	-10.662
▁Attorney	-10.6622
▁modest	-10.6626
▁Fe	-10.6627
formed	-10.6628
▁handful	-10.6628
▁admitted	-10.6633
▁fields	-10.6634
▁pointed	-10.6634
▁Dick	-10.6636
▁error	-10.6636
▁belong	-10.6642
▁Hispanic	-10.6645
level	-10.6646
▁Microsoft	-10.6647
▁blocks	-10.665
▁materials	-10.6654
▁soup	-10.6657
necessarily	-10.6658
▁lay	-10.6663
▁scale	-10.6665
▁HS	-10.6668
▁library	-10.6668
▁races	-10.6676
▁Terry	-10.6678
▁prominent	-10.668
tech	-10.6681
▁excellent	-10.6683
▁contest	-10.6686
▁function	-10.6686
▁Elizabeth	-10.6688
▁silver	-10.6691
▁wedding	-10.6693
▁judges	-10.6706
▁smoke	-10.6707
ball	-10.671
▁transition	-10.6719
▁UN	-10.6723
▁fought	-10.6734
bar	-10.6735
▁accomplish	-10.6737
▁Everyone	-10.674
ix	-10.6741
low	-10.6747
▁pension	-10.6747
▁receiving	-10.6749
▁Country	-10.6752
▁assistance	-10.6755
▁photos	-10.6759
▁ranks	-10.6759
▁singer	-10.676
▁Former	-10.6768
▁cheap	-10.6769
▁RB	-10.6772
▁Syria	-10.6783
▁Main	-10.6784
ible	-10.6791
▁Edward	-10.6793
▁Wal	-10.6801
▁ranked	-10.6803
▁oversee	-10.6804
▁Special	-10.6804
▁animal	-10.6806
TV	-10.6807
▁innings	-10.6811
▁radical	-10.6813
▁Prince	-10.6814
▁substantial	-10.6816
ical	-10.6818
▁Gordon	-10.6821
▁suspect	-10.6822
▁Louisiana	-10.6824
▁eager	-10.6824
▁recovery	-10.6827
▁trail	-10.6833
▁pitching	-10.6837
▁Dennis	-10.6838
▁matters	-10.6845
▁electricity	-10.6845
▁continuing	-10.6849
▁contributions	-10.6849
▁crucial	-10.6855
▁ourselves	-10.686
▁Si	-10.6867
▁tall	-10.6874
▁Harry	-10.6875
▁illness	-10.6876
▁amazing	-10.6878
▁windows	-10.6879
▁thin	-10.6881
ring	-10.6881
▁20-	-10.6885
▁95	-10.6887
20	-10.6889
▁map	-10.689
▁Without	-10.6893
▁Rd	-10.6896
▁proved	-10.6899
▁incentive	-10.6908
▁Senator	-10.691
gu	-10.6915
▁fiber	-10.6917
tion	-10.6918
▁anger	-10.6919
▁flood	-10.6922
▁selection	-10.6927
▁Pan	-10.6928
▁expressed	-10.6943
▁species	-10.6948
potatoes	-10.6953
▁Bra	-10.6954
▁bridge	-10.6958
▁consequence	-10.6962
▁unable	-10.6965
▁Book	-10.6965
▁Get	-10.6969
▁electronic	-10.6984
▁vegetables	-10.699
▁Phoenix	-10.6993
▁invited	-10.6995
▁Bobby	-10.6998
▁permanent	-10.7002
sch	-10.7008
▁orange	-10.701
▁dis	-10.701
▁settled	-10.7011
▁repair	-10.7011
▁multi	-10.7014
known	-10.7016
▁funny	-10.7017
▁Ridge	-10.7019
▁unlikely	-10.702
▁actors	-10.7022
▁stake	-10.7022
▁wealth	-10.7023
▁crazy	-10.7024
▁rush	-10.7027
▁Romney	-10.7027
don	-10.7029
▁controversial	-10.7031
▁hire	-10.7033
▁ignore	-10.7033
▁encounter	-10.7036
▁Trade	-10.7042
ki	-10.7042
▁deeply	-10.7042
▁$15	-10.7051
▁Ex	-10.7052
92	-10.7056
school	-10.7056
▁SEC	-10.7056
95	-10.7057
▁theme	-10.7061
▁bankruptcy	-10.7061
▁Rob	-10.7063
▁Col	-10.7066
▁explains	-10.7068
▁Adam	-10.707
▁Jean	-10.7072
▁experiment	-10.7074
air	-10.7075
04	-10.7079
▁expenses	-10.7082
▁manage	-10.7082
ack	-10.7084
▁shoes	-10.7088
▁$20	-10.7089
▁forms	-10.7092
he	-10.7093
▁knowing	-10.7096
▁regularly	-10.7099
▁passion	-10.7103
ries	-10.7105
▁Salt	-10.7109
▁recall	-10.7111
▁affairs	-10.7112
ang	-10.7113
▁clubs	-10.7114
▁extended	-10.7116
▁seventh	-10.7118
▁Rich	-10.7118
▁exhibit	-10.7118
▁77	-10.7119
▁convinced	-10.712
▁Cooper	-10.7127
vi	-10.7131
▁Civil	-10.7133
▁baking	-10.7133
ya	-10.7144
▁surround	-10.7149
▁drew	-10.7151
▁reporting	-10.7153
▁tape	-10.7162
35	-10.7165
▁eliminate	-10.7168
gi	-10.7175
▁Simon	-10.7178
▁sets	-10.7187
▁rejected	-10.7189
tro	-10.7191
▁Vi	-10.7192
▁testimon	-10.7194
▁fundamental	-10.7199
▁everywhere	-10.7203
▁technical	-10.7209
▁identity	-10.721
▁CD	-10.7213
oo	-10.7215
▁Cha	-10.7219
▁Canadian	-10.7221
▁rely	-10.7225
▁Russell	-10.7226
▁totally	-10.7226
▁Taliban	-10.7226
▁performed	-10.7226
▁blacks	-10.7229
▁Fred	-10.7231
▁flag	-10.7233
▁Steven	-10.7234
▁ratings	-10.7236
▁hall	-10.7242
▁sample	-10.7244
▁sons	-10.7246
▁Buffalo	-10.7246
▁unemployment	-10.7246
▁b	-10.7248
▁Bureau	-10.7252
▁bonds	-10.7254
while	-10.7254
▁rough	-10.7257
TH	-10.7258
.5	-10.7263
high	-10.7266
▁painting	-10.7267
▁Dean	-10.7273
cher	-10.7275
▁smooth	-10.7276
▁Highway	-10.7281
▁Da	-10.7281
▁Port	-10.7281
▁Par	-10.7286
▁Alan	-10.7288
▁rating	-10.7293
▁quit	-10.7305
▁inspired	-10.7311
▁puts	-10.7311
▁roof	-10.7337
87	-10.7338
▁disappear	-10.7345
▁volunteers	-10.7346
▁adopted	-10.7349
▁tired	-10.7356
▁statements	-10.7357
▁ideal	-10.7362
▁Lane	-10.7367
gar	-10.7368
▁ballot	-10.7374
mi	-10.7376
▁tracks	-10.7377
ec	-10.7383
▁symbol	-10.7384
▁notion	-10.7385
▁Penn	-10.7388
▁Baptist	-10.739
▁Agency	-10.739
▁driven	-10.7404
▁GM	-10.7405
▁visiting	-10.7406
▁Afghan	-10.7408
ai	-10.7409
▁gap	-10.741
▁complicated	-10.7419
▁Live	-10.7423
▁supplies	-10.7425
▁6-	-10.7428
▁delivered	-10.7428
▁childhood	-10.7441
96	-10.7458
▁participate	-10.7458
▁laugh	-10.7459
ani	-10.7459
▁employers	-10.746
▁starter	-10.746
▁eighth	-10.7461
▁breaking	-10.747
▁trained	-10.7477
▁onion	-10.7481
▁nomination	-10.7484
▁bodies	-10.7485
▁Award	-10.7493
▁Carl	-10.7493
▁rushing	-10.7502
▁electric	-10.7502
▁discipline	-10.7503
▁tomatoes	-10.7506
▁surrounding	-10.7511
▁confident	-10.7515
▁atmosphere	-10.7515
▁Craig	-10.7518
▁Side	-10.7519
▁performances	-10.7519
season	-10.7522
rate	-10.7523
▁Guard	-10.7523
▁math	-10.7527
▁sand	-10.7529
income	-10.753
▁automatic	-10.753
▁tablespoon	-10.7533
▁switch	-10.7535
▁Jimmy	-10.7536
▁destroy	-10.7538
ure	-10.7541
▁impose	-10.7544
▁factory	-10.7549
▁Say	-10.7549
wan	-10.755
fa	-10.7552
▁**25;	-10.7554
▁Summer	-10.7554
▁revolution	-10.7559
▁linebacker	-10.7566
▁legislative	-10.7569
▁taxpayers	-10.757
▁bags	-10.7585
▁Until	-10.7587
▁statistics	-10.7588
▁Jo	-10.759
▁kinds	-10.7591
▁volume	-10.7596
▁numerous	-10.7597
▁journey	-10.7605
▁Christopher	-10.7611
▁creation	-10.7612
▁sending	-10.7616
▁touchdowns	-10.7617
▁invest	-10.7618
▁suffer	-10.762
▁Town	-10.7622
▁breast	-10.7624
▁ending	-10.763
bringing	-10.7633
▁orders	-10.7633
▁weekly	-10.7633
▁referr	-10.7639
▁Sal	-10.764
▁alleged	-10.7641
claimed	-10.7648
▁signing	-10.7649
▁blow	-10.765
▁supporting	-10.7651
▁Elementary	-10.7656
▁Australia	-10.7659
▁protein	-10.7659
ud	-10.7661
▁tremendous	-10.7662
▁Franklin	-10.7666
▁Roy	-10.7673
▁ESPN	-10.7674
▁contemporary	-10.7676
more	-10.7677
▁Alexander	-10.7681
▁scientific	-10.7682
▁pride	-10.7682
▁retain	-10.7684
▁Todd	-10.7684
▁Total	-10.7685
▁dispute	-10.7687
size	-10.7688
▁sight	-10.7689
▁viewers	-10.7691
▁15-	-10.7695
▁carefully	-10.77
▁stuck	-10.7702
▁Pe	-10.7702
▁Tickets	-10.7704
▁Fulton	-10.7708
▁wound	-10.7709
▁suburban	-10.7709
▁CO	-10.7711
▁cholesterol	-10.7717
▁Aurora	-10.772
▁thanks	-10.7723
tz	-10.7724
▁burden	-10.7726
▁tennis	-10.7726
▁calm	-10.7728
▁remembers	-10.7736
ini	-10.7737
▁historical	-10.7741
▁polls	-10.7744
▁somewhat	-10.7745
70	-10.775
cent	-10.7751
▁relatives	-10.7751
▁amid	-10.7755
▁guest	-10.7755
▁bench	-10.7761
ence	-10.7761
bu	-10.7761
▁Line	-10.7764
▁Egypt	-10.7764
.1	-10.7765
▁lineup	-10.7768
ward	-10.777
▁text	-10.7772
72	-10.7773
09	-10.7782
▁30-	-10.7783
▁beating	-10.7785
▁gang	-10.7786
▁deaths	-10.7788
▁engine	-10.7788
▁$6	-10.779
▁recover	-10.7791
presented	-10.7792
▁shops	-10.7794
▁finds	-10.7795
▁78	-10.7797
▁resort	-10.7798
▁responded	-10.7801
har	-10.7802
▁anniversary	-10.7803
▁prepar	-10.7804
▁false	-10.7806
▁Building	-10.7809
▁headline	-10.7814
▁prayer	-10.7815
▁reference	-10.7816
we	-10.7816
▁beans	-10.7817
▁birthday	-10.7817
▁LB	-10.7819
▁Wayne	-10.7821
▁selected	-10.7824
▁allegations	-10.7829
▁forest	-10.7843
▁prospect	-10.7846
▁$8	-10.7855
▁visits	-10.7856
100	-10.7858
▁somewhere	-10.7858
▁recognized	-10.786
▁Constitution	-10.7862
64	-10.7864
▁constitutional	-10.7865
▁payment	-10.7865
bra	-10.7866
hand	-10.7873
▁worldwide	-10.7873
▁Charlie	-10.7877
08	-10.7878
▁seed	-10.788
▁tries	-10.7884
▁types	-10.7885
▁machines	-10.7887
▁Communist	-10.7888
▁2,000	-10.7891
LE	-10.7901
80	-10.7905
stone	-10.7913
▁terrorism	-10.7914
▁hiring	-10.7915
mb	-10.7916
▁Serve	-10.7919
▁trucks	-10.792
▁Rams	-10.7926
▁appointment	-10.7931
▁stronger	-10.7931
▁contend	-10.7933
▁Montgomery	-10.7933
▁importance	-10.7933
▁desert	-10.7936
94	-10.7938
ob	-10.7946
▁communications	-10.7946
▁peer	-10.7946
▁Near	-10.7947
▁fare	-10.7948
▁Legislature	-10.7949
▁Management	-10.7949
▁6:30	-10.795
ery	-10.7953
▁tension	-10.7953
story	-10.7955
▁highway	-10.7957
▁celebration	-10.7958
▁Donald	-10.7958
▁temperature	-10.7963
cited	-10.7975
▁designer	-10.7982
▁educational	-10.7991
▁FOR	-10.7992
▁inflation	-10.7993
▁purchased	-10.8001
-14	-10.8002
▁commissioner	-10.8004
▁gray	-10.8009
▁accounting	-10.801
45	-10.8011
▁owns	-10.8012
▁advanced	-10.8012
▁anyway	-10.8022
▁Down	-10.8023
ise	-10.8029
▁differences	-10.8031
▁introduce	-10.8033
▁Silver	-10.804
ari	-10.8054
vo	-10.8057
▁weak	-10.8059
▁Holmes	-10.8062
59	-10.8062
▁upper	-10.8073
▁desk	-10.8075
▁Far	-10.8075
▁III	-10.808
▁smoking	-10.8082
▁Billy	-10.8083
▁recording	-10.809
▁label	-10.8091
▁appointed	-10.8092
02	-10.8093
▁strip	-10.8098
▁tested	-10.8106
▁titles	-10.8107
▁occur	-10.8107
▁suffering	-10.8111
ven	-10.8112
▁Ro	-10.8121
▁TO	-10.8124
▁bargain	-10.8135
▁rebounds	-10.8136
life	-10.8137
▁Program	-10.8138
62	-10.8139
▁bike	-10.8139
▁Tu	-10.814
▁premium	-10.8141
▁moderate	-10.8145
▁furniture	-10.8148
▁Ward	-10.8148
▁traveling	-10.8156
▁gained	-10.8157
▁Aaron	-10.8157
▁Jews	-10.8161
▁Reed	-10.8162
▁prize	-10.8162
▁exception	-10.8163
▁Library	-10.8164
▁compensation	-10.8167
▁Play	-10.8171
uck	-10.8174
▁sector	-10.8175
▁Rod	-10.8175
▁100,000	-10.8176
▁aircraft	-10.8179
▁divided	-10.8182
▁opens	-10.8188
91	-10.8191
▁teammates	-10.8194
war	-10.8196
▁Warren	-10.8202
▁rear	-10.8208
▁relationships	-10.8209
▁packed	-10.8209
▁DeKalb	-10.8212
▁hero	-10.8214
▁beauty	-10.8216
▁Murphy	-10.8221
▁Te	-10.8222
▁Third	-10.8225
▁lessons	-10.8225
▁spots	-10.8231
81	-10.8232
▁Page	-10.8233
▁Lady	-10.8235
▁racing	-10.8235
47	-10.8244
▁impressive	-10.8244
▁publisher	-10.8248
▁Sch	-10.8257
▁Jefferson	-10.826
▁chosen	-10.8261
▁Palestinians	-10.8268
▁competing	-10.827
▁2-	-10.8271
▁churches	-10.8272
▁outdoor	-10.8273
▁destroyed	-10.8274
ola	-10.8274
▁rang	-10.8275
▁opposite	-10.8279
▁clothing	-10.8283
▁counsel	-10.8284
▁jazz	-10.8289
▁pursue	-10.8292
▁Commerce	-10.8293
▁Senior	-10.8299
▁facts	-10.8301
▁NATO	-10.8302
▁factors	-10.8303
▁Band	-10.8306
▁Rockies	-10.8307
▁Later	-10.8311
▁Too	-10.8317
▁conviction	-10.8319
▁expanded	-10.8319
▁$7	-10.8324
304	-10.8329
▁client	-10.8333
▁layer	-10.8333
▁seniors	-10.8335
▁Nancy	-10.8335
▁tank	-10.8336
▁Beijing	-10.8337
vin	-10.834
▁Dame	-10.8345
entirely	-10.8347
▁Indians	-10.835
▁en	-10.8354
▁duty	-10.8355
▁theory	-10.8357
▁checks	-10.8359
▁Labor	-10.8371
▁pork	-10.8371
▁settle	-10.8377
▁Arlington	-10.838
▁2014	-10.8381
▁causes	-10.8381
sharing	-10.8381
▁marked	-10.8383
▁directors	-10.8385
▁luxury	-10.839
▁Pre	-10.8392
▁Six	-10.8393
▁wage	-10.8394
▁discount	-10.8397
▁Real	-10.8398
▁excited	-10.8398
27	-10.8399
▁emerged	-10.84
▁Airport	-10.84
▁hotels	-10.8401
▁governments	-10.8402
▁Richmond	-10.8406
▁Tampa	-10.8406
aimed	-10.8409
▁swing	-10.8412
▁commander	-10.8412
▁strange	-10.8413
▁courses	-10.8418
▁aim	-10.842
▁hundred	-10.8422
▁Kuwait	-10.8423
▁abandoned	-10.8425
▁roster	-10.8426
▁resolution	-10.8426
▁habit	-10.8426
art	-10.8427
▁auction	-10.8429
▁constantly	-10.843
▁Roberts	-10.8431
▁stepped	-10.8431
▁humor	-10.8432
page	-10.8433
▁legislator	-10.8435
▁Graham	-10.8436
▁Evans	-10.8438
▁Spain	-10.8444
▁memories	-10.8445
31	-10.8446
▁script	-10.8451
▁concrete	-10.8455
▁foster	-10.8462
▁fallen	-10.8462
▁1982	-10.8468
▁complain	-10.8469
▁enjoyed	-10.847
61	-10.8471
▁saved	-10.8474
▁meals	-10.8476
▁RE	-10.8477
▁Southwest	-10.8479
affected	-10.8483
▁earth	-10.8484
▁throwing	-10.8489
▁sodium	-10.8492
ile	-10.8494
ue	-10.8496
▁1983	-10.8497
▁Lawrence	-10.8497
▁Madison	-10.8505
▁Daily	-10.8506
▁roots	-10.8507
▁extensive	-10.8508
▁Wa	-10.8514
▁mis	-10.8515
▁margin	-10.8521
▁liquid	-10.8521
▁$25	-10.8521
▁Unlike	-10.8522
▁tower	-10.8526
place	-10.8529
▁priority	-10.8532
▁Edwards	-10.8532
▁blind	-10.8535
▁gathering	-10.8535
▁tone	-10.8537
68	-10.8539
OR	-10.8539
▁document	-10.8539
▁Major	-10.8541
▁circumstances	-10.8543
work	-10.8551
▁Mel	-10.8554
▁Chairman	-10.8555
▁actual	-10.8556
▁Roman	-10.8566
▁Ver	-10.8567
ice	-10.8572
▁NW	-10.8575
▁demonstrate	-10.8577
▁interior	-10.8577
▁located	-10.8581
▁Delta	-10.8585
▁shock	-10.8585
▁newly	-10.8586
▁sits	-10.8587
▁repeat	-10.8592
▁Ne	-10.8598
86	-10.8606
▁Cuba	-10.8609
▁Cor	-10.8612
▁6-0	-10.8616
▁powder	-10.8624
83	-10.8627
▁Connecticut	-10.8631
▁Marine	-10.8633
▁engineering	-10.8636
▁TE	-10.8636
44	-10.864
▁charter	-10.8652
89	-10.8653
tra	-10.8655
▁bars	-10.8655
▁partly	-10.8657
▁gains	-10.866
▁controversy	-10.8661
born	-10.8667
▁Gallery	-10.8671
▁3,000	-10.8672
74	-10.8674
▁mess	-10.8676
▁recorded	-10.8676
▁thank	-10.8682
▁Whether	-10.8685
56	-10.8686
▁criticized	-10.8687
▁acts	-10.8687
set	-10.8688
▁cruise	-10.869
▁territory	-10.8691
▁Philip	-10.8691
ji	-10.8705
▁elements	-10.8706
▁boss	-10.8707
▁sky	-10.8708
argued	-10.8709
▁conclusion	-10.8715
▁gate	-10.8727
▁hoped	-10.8729
▁steam	-10.8733
producing	-10.874
tu	-10.8741
owned	-10.8741
▁concluded	-10.8744
▁Foreign	-10.8749
▁temporary	-10.8752
▁Boy	-10.8759
▁fairly	-10.8762
▁diet	-10.8767
ew	-10.8772
▁forever	-10.8775
▁locations	-10.8778
▁confront	-10.8782
▁provision	-10.8784
400	-10.8786
▁resolve	-10.8788
▁Andy	-10.8791
▁Sacramento	-10.8791
▁$100	-10.8791
▁deadline	-10.8792
46	-10.88
si	-10.8803
▁Clear	-10.8809
▁comfort	-10.8813
▁regulators	-10.8813
▁manner	-10.8819
▁Ball	-10.882
▁failing	-10.8821
▁monitor	-10.8822
▁marijuana	-10.8823
▁shelter	-10.8824
▁print	-10.8827
▁Che	-10.8828
▁appreciate	-10.8828
▁steady	-10.883
▁residential	-10.8831
67	-10.8835
▁Jonathan	-10.8837
▁actress	-10.8837
06	-10.8838
▁Reserve	-10.8838
▁remind	-10.884
▁Mason	-10.8841
23	-10.8844
▁elite	-10.8844
▁soil	-10.8847
▁copy	-10.8848
▁ERA	-10.8854
▁daughters	-10.8856
▁flights	-10.8858
▁employment	-10.886
▁Gi	-10.8862
▁Baseball	-10.8864
▁Does	-10.8865
▁cooked	-10.8865
21	-10.8868
AS	-10.887
▁interviewed	-10.8873
▁Ted	-10.8875
▁producers	-10.8879
iv	-10.8881
Mart	-10.8882
▁coal	-10.8882
dale	-10.8884
▁judgment	-10.8884
▁ocean	-10.8888
rich	-10.8889
fer	-10.8889
▁fail	-10.8891
▁Walter	-10.8892
▁Local	-10.8896
▁Mich	-10.8899
▁600	-10.8903
▁birds	-10.8909
▁Brad	-10.8918
▁camps	-10.8919
aeda	-10.8921
▁institution	-10.8922
▁Peachtree	-10.8923
▁ease	-10.8926
▁92	-10.8931
▁Rockets	-10.8931
▁oppose	-10.8934
zz	-10.8935
▁valuable	-10.8937
▁Jennifer	-10.8943
▁plain	-10.8946
▁link	-10.8946
▁shake	-10.8947
▁pie	-10.8947
▁def	-10.8949
▁hat	-10.8954
▁banking	-10.8955
▁corruption	-10.8957
▁stir	-10.896
800	-10.8961
▁announcement	-10.8961
▁revenues	-10.8963
▁Financial	-10.8964
▁McDonald	-10.8968
▁disagree	-10.8969
▁Brazil	-10.8973
▁devices	-10.8976
▁bay	-10.8978
▁helicopter	-10.8978
▁Rodriguez	-10.8979
gan	-10.8981
▁turkey	-10.8981
▁solve	-10.8986
▁spiritual	-10.8988
▁traded	-10.8995
▁250	-10.9
▁Round	-10.9001
pro	-10.9002
▁overseas	-10.9007
▁Doug	-10.9013
play	-10.9016
▁inning	-10.9019
▁Falcons	-10.9028
▁feed	-10.9031
IN	-10.9033
▁neck	-10.9034
▁Google	-10.9037
98	-10.9038
▁tools	-10.904
▁Was	-10.9045
▁papers	-10.9045
▁bitter	-10.9047
▁insisted	-10.9048
▁Authority	-10.9055
▁golden	-10.9058
▁Sean	-10.9061
▁Garcia	-10.9062
▁Linda	-10.9062
▁plot	-10.9062
▁stone	-10.9064
vis	-10.9065
▁mutual	-10.9068
▁Stanley	-10.9069
▁starters	-10.9071
▁ancient	-10.9072
▁Powell	-10.9076
▁sophomore	-10.9079
▁Everything	-10.9082
▁loud	-10.9083
night	-10.909
so	-10.9091
▁militant	-10.9093
▁stem	-10.9095
▁handling	-10.91
▁cycle	-10.91
▁personality	-10.9103
▁wire	-10.9105
▁investments	-10.9118
▁Ja	-10.912
ica	-10.9121
ef	-10.9123
▁Opera	-10.9124
▁mg	-10.9124
▁entry	-10.9126
▁lies	-10.9126
▁hockey	-10.9128
▁studied	-10.9128
▁preserve	-10.9129
▁Symphony	-10.9135
▁Jane	-10.9137
▁1979	-10.9139
▁fears	-10.9142
ou	-10.9145
row	-10.9147
▁Glen	-10.9147
▁bunch	-10.915
dominated	-10.915
▁object	-10.9152
ious	-10.9152
▁paintings	-10.9152
ingredients	-10.9155
▁Gu	-10.9155
▁restrictions	-10.9156
▁mile	-10.9165
▁thrown	-10.9165
king	-10.9166
▁civilian	-10.9167
▁holes	-10.9169
ite	-10.9172
73	-10.9182
▁tactic	-10.9183
▁Raiders	-10.9184
▁western	-10.9185
▁Eagles	-10.9186
ero	-10.9188
▁fle	-10.919
79	-10.9191
▁expression	-10.9192
oc	-10.9194
▁Manning	-10.9198
▁category	-10.9199
▁obviously	-10.92
▁pledge	-10.9203
▁divorce	-10.9203
▁Astros	-10.9205
▁recommended	-10.9207
win	-10.9208
▁Iranian	-10.9208
▁yield	-10.9212
▁compromise	-10.9214
▁Gar	-10.9216
▁indeed	-10.9219
book	-10.9222
▁Kerry	-10.9224
▁outcome	-10.9228
▁tale	-10.923
▁graduated	-10.9231
▁spill	-10.9231
▁bombing	-10.9234
▁tobacco	-10.9234
▁victories	-10.9234
▁classroom	-10.9235
▁remark	-10.9244
▁oldest	-10.9244
▁theaters	-10.9248
▁garage	-10.9248
ev	-10.9249
▁Hav	-10.9255
▁Much	-10.9261
▁jumped	-10.9262
▁Championship	-10.9263
▁riding	-10.9263
spread	-10.9264
urged	-10.9265
▁History	-10.9266
▁planes	-10.927
▁Chi	-10.927
▁94	-10.927
▁Notre	-10.9271
▁fame	-10.9271
▁Space	-10.9271
▁deny	-10.9273
▁involvement	-10.9278
▁awards	-10.9281
▁improvements	-10.9284
▁bottle	-10.9286
75	-10.9287
▁shadow	-10.9288
▁harm	-10.929
▁climb	-10.9292
▁thus	-10.9293
▁journalists	-10.93
▁TD	-10.9307
ins	-10.9309
if	-10.931
ide	-10.9311
▁tip	-10.9314
▁Film	-10.9316
▁brick	-10.9317
ON	-10.9325
▁efficient	-10.9325
▁1981	-10.9328
▁Ronald	-10.933
▁recommendation	-10.9331
▁lucky	-10.9332
▁Head	-10.9334
▁Rogers	-10.9336
▁annually	-10.9337
member	-10.9337
▁towns	-10.9338
▁raw	-10.9342
▁tables	-10.9346
▁Tra	-10.9347
▁unlike	-10.9348
▁Cowboys	-10.9355
▁$12	-10.9355
▁apparent	-10.9362
ade	-10.9364
▁implement	-10.9365
▁trigger	-10.937
▁Week	-10.938
ung	-10.9382
▁citizen	-10.9384
22	-10.9384
▁Blvd	-10.9392
▁contribute	-10.9393
▁nervous	-10.9395
▁Jesus	-10.9395
▁portray	-10.9397
▁recruiting	-10.94
IT	-10.9401
▁mood	-10.9403
▁legacy	-10.9406
fu	-10.9407
▁Make	-10.941
▁feelings	-10.941
▁artistic	-10.9412
net	-10.9414
▁motion	-10.942
▁achievement	-10.942
▁generate	-10.9422
▁constant	-10.9423
▁tours	-10.9425
▁promises	-10.9426
▁privacy	-10.9429
▁independence	-10.943
▁79	-10.9435
▁ownership	-10.944
cho	-10.9441
▁improvement	-10.9443
▁Pete	-10.9445
▁singing	-10.9447
▁dough	-10.9448
▁gear	-10.9448
lon	-10.945
▁representative	-10.9451
▁Carol	-10.9452
▁household	-10.9453
▁acquired	-10.9454
▁publication	-10.9458
ich	-10.9459
▁Copyright	-10.946
▁admission	-10.9462
▁politically	-10.9462
▁adjust	-10.9462
ridge	-10.9463
▁explore	-10.9466
▁Toronto	-10.9471
▁govern	-10.9475
▁complained	-10.9475
▁Wild	-10.9476
▁refugees	-10.9476
yn	-10.948
▁Republic	-10.9481
▁dedicated	-10.9485
▁allies	-10.9485
▁Johnny	-10.9486
▁Fame	-10.9491
▁comic	-10.9494
▁Hi	-10.9495
▁Hamilton	-10.9497
ren	-10.9497
rick	-10.9498
▁burn	-10.9519
▁infrastructure	-10.9519
▁82	-10.9519
▁Light	-10.952
▁bone	-10.9521
▁steal	-10.9521
▁collective	-10.9523
▁hunt	-10.9524
▁Hunter	-10.9524
▁Keith	-10.9527
▁lesson	-10.9533
▁requirements	-10.9533
▁Media	-10.9535
▁Cost	-10.9537
▁attorneys	-10.9538
▁hell	-10.954
▁pattern	-10.954
▁pound	-10.9548
▁proceed	-10.9553
69	-10.9555
▁developers	-10.9555
iest	-10.9561
▁anchor	-10.9568
▁Trail	-10.9568
uff	-10.9569
▁5,000	-10.9571
▁Phillips	-10.9571
▁Chuck	-10.9575
▁heading	-10.9576
29	-10.9576
▁defendant	-10.9577
▁filling	-10.958
▁ceiling	-10.9584
▁striking	-10.9585
▁5-	-10.9585
▁utility	-10.9586
▁registered	-10.9587
▁Su	-10.9591
▁suspended	-10.9591
ella	-10.9591
▁Heart	-10.9593
▁depth	-10.9593
▁Rating	-10.9597
▁Winter	-10.9597
▁Palm	-10.9598
▁spark	-10.9599
▁manufacturing	-10.96
▁properties	-10.96
▁Portland	-10.9601
our	-10.9605
▁confirmed	-10.9608
▁arrive	-10.961
▁Commissioner	-10.961
▁j	-10.9613
▁blend	-10.9616
▁lie	-10.9619
▁Ha	-10.9621
▁accurate	-10.9622
▁friendly	-10.9624
77	-10.9626
.25	-10.9627
▁prohibit	-10.9628
▁Brooks	-10.9628
van	-10.9631
▁financing	-10.9636
▁wealthy	-10.9638
▁exciting	-10.964
▁Arthur	-10.964
▁detail	-10.9643
-17	-10.9647
▁nights	-10.965
▁enemy	-10.9655
▁capture	-10.9657
MA	-10.9659
▁connected	-10.9661
▁zero	-10.9663
▁senator	-10.9665
▁applied	-10.9666
▁legs	-10.9668
▁eligible	-10.9674
▁Cy	-10.9677
▁Enron	-10.9681
▁celebrat	-10.9683
▁sanctions	-10.9685
cy	-10.9685
24	-10.9687
▁granted	-10.9691
▁Stock	-10.9693
▁corporations	-10.9697
▁Bas	-10.97
▁mistakes	-10.9701
▁Marietta	-10.9703
▁hanging	-10.9704
▁Turkey	-10.9711
▁couples	-10.9714
▁mall	-10.9715
▁suburbs	-10.9717
▁Bradley	-10.9719
ough	-10.9721
▁Francis	-10.9725
▁Bre	-10.9733
▁McCain	-10.9737
▁mainstream	-10.9737
▁Small	-10.9741
▁troubled	-10.9745
square	-10.9746
▁Grove	-10.9748
ada	-10.9751
▁nurse	-10.9753
▁reaching	-10.9755
▁Nothing	-10.9756
41	-10.9758
▁Cuban	-10.9759
▁o	-10.9761
▁weigh	-10.9762
▁Heat	-10.9763
▁discover	-10.9763
▁Medicaid	-10.9767
▁Room	-10.977
▁Football	-10.9771
▁Sundays	-10.9773
rin	-10.9774
▁Economic	-10.9774
▁listening	-10.9774
▁Station	-10.9775
▁rank	-10.9776
▁teens	-10.9781
▁hopeful	-10.9786
▁Gray	-10.9789
▁careful	-10.9791
▁challenging	-10.9793
ory	-10.9797
▁reasonable	-10.9798
bb	-10.9802
▁Milwaukee	-10.9803
▁Sarah	-10.9803
▁entering	-10.9804
▁planet	-10.9807
▁Golf	-10.981
▁trace	-10.981
▁airlines	-10.9811
made	-10.9814
▁Christ	-10.9818
▁van	-10.982
▁Keep	-10.9827
▁device	-10.9829
▁lake	-10.983
▁flash	-10.9831
▁nose	-10.9831
meter	-10.9833
▁lab	-10.9838
▁Tigers	-10.9838
▁End	-10.9847
▁formula	-10.9847
▁captured	-10.9849
bury	-10.985
▁painful	-10.9853
istic	-10.9854
ups	-10.9855
▁innocent	-10.9857
▁Pi	-10.9857
winning	-10.9866
▁smell	-10.9866
▁remarkable	-10.9871
.2	-10.9876
▁expense	-10.9876
▁somehow	-10.9876
▁terrible	-10.9876
IC	-10.9876
▁port	-10.9878
▁cameras	-10.988
▁grandmother	-10.9881
▁tender	-10.9883
▁ordinary	-10.9884
▁Hong	-10.9891
▁pure	-10.9892
▁SO	-10.9894
▁Shiite	-10.9896
▁generations	-10.9899
▁linked	-10.9905
▁staying	-10.9909
▁Cole	-10.9909
▁overnight	-10.9911
▁Up	-10.9912
▁please	-10.9913
▁craft	-10.9915
▁disabled	-10.9916
▁philosophy	-10.9918
▁bound	-10.9918
▁pollution	-10.9918
ear	-10.9918
ng	-10.9919
▁fixed	-10.9925
ay	-10.993
▁120	-10.9931
▁abroad	-10.9933
▁Airlines	-10.9938
▁Rangers	-10.9938
▁Royal	-10.994
▁equally	-10.9941
▁bird	-10.9944
▁unions	-10.9944
▁collected	-10.9948
▁Lou	-10.9948
▁Indianapolis	-10.9952
▁entrance	-10.9952
stood	-10.9954
▁Serb	-10.9957
▁Arabia	-10.9958
▁clock	-10.996
▁rap	-10.9962
▁Facebook	-10.9964
▁channel	-10.9966
▁combine	-10.9966
▁View	-10.9968
78	-10.9971
light	-10.9981
▁Wi	-10.9985
▁representatives	-10.9985
▁yard	-10.9986
▁strongly	-10.9987
▁Fisher	-10.9988
▁luck	-10.9988
▁ninth	-10.9991
▁maker	-10.9991
▁Mi	-10.9994
▁impression	-10.9994
▁threats	-10.9997
hal	-10.9998
funded	-10.9999
60	-11
▁knock	-11.0001
▁mainly	-11.0004
▁TBA	-11.0004
▁pen	-11.0004
bound	-11.0005
▁backed	-11.0012
▁circle	-11.0024
▁attractive	-11.003
AM	-11.0031
▁ceremony	-11.0036
▁inspector	-11.0037
▁Columbus	-11.0048
▁firefighter	-11.0048
▁elderly	-11.0049
▁barrier	-11.0052
▁rpg	-11.0056
▁Anne	-11.0058
ERS	-11.0058
▁Bulls	-11.0061
▁delivery	-11.0062
▁Gra	-11.0063
▁dust	-11.0066
▁sudden	-11.0068
▁odd	-11.007
▁sensitive	-11.0073
▁colors	-11.0073
▁messages	-11.0073
▁competitors	-11.0084
▁roles	-11.0086
▁inner	-11.0088
▁peak	-11.0093
▁improving	-11.0095
▁discussed	-11.0097
▁Transportation	-11.0098
▁Martinez	-11.0099
▁recognition	-11.0102
▁81	-11.0103
▁parade	-11.0104
▁averaged	-11.0106
▁residence	-11.0106
▁democratic	-11.0106
▁mobile	-11.0108
▁connect	-11.0109
▁Hart	-11.0109
▁sole	-11.011
▁mountains	-11.0111
▁shrimp	-11.0114
▁defeated	-11.0118
▁Run	-11.012
▁nominee	-11.0121
▁remote	-11.0122
▁supervisor	-11.0124
▁platform	-11.0125
▁inter	-11.0126
▁resist	-11.0126
▁Carlos	-11.0127
▁exit	-11.0128
▁swimming	-11.0129
▁rescue	-11.0133
▁Would	-11.0137
▁phase	-11.0137
▁Assembly	-11.0144
▁amendment	-11.0145
hol	-11.0146
▁Charlotte	-11.0148
▁84	-11.0151
sha	-11.0154
▁Mon	-11.0155
▁targets	-11.0156
▁traveled	-11.0159
▁Cafe	-11.0159
26	-11.0162
▁Ill	-11.0169
cur	-11.0169
▁CB	-11.0171
worth	-11.0171
▁Nixon	-11.0172
▁pipe	-11.0177
ros	-11.0185
▁Kids	-11.0185
▁rushed	-11.0189
▁lift	-11.0189
▁sessions	-11.0191
▁critic	-11.0193
▁Kong	-11.0203
▁carbohydrate	-11.0203
▁4-	-11.0205
▁pizza	-11.0207
hr	-11.0209
tin	-11.0209
▁prior	-11.021
lock	-11.0211
▁industries	-11.0211
▁Critic	-11.0211
▁loose	-11.0212
▁coat	-11.0213
▁Val	-11.0215
ff	-11.0217
▁88	-11.0219
▁scheme	-11.0219
▁opponent	-11.0219
▁precise	-11.0223
▁CIA	-11.0224
▁Barnes	-11.0225
▁diverse	-11.0227
▁silent	-11.0231
▁Dodgers	-11.0234
▁express	-11.0235
▁dressed	-11.0241
.3	-11.0243
▁lifestyle	-11.0243
▁march	-11.0246
▁exposed	-11.0248
RA	-11.0249
▁Lisa	-11.0253
▁colleges	-11.0255
▁NHL	-11.0255
quarter	-11.0256
▁membership	-11.0256
▁Bible	-11.0258
key	-11.0259
▁Alaska	-11.0259
▁grocery	-11.0261
▁replacement	-11.0261
▁employ	-11.0266
▁Josh	-11.0266
▁intellectual	-11.0266
▁Which	-11.0266
▁arena	-11.0266
ken	-11.0273
mm	-11.0277
▁tomorrow	-11.0278
▁discrimination	-11.0278
▁controlled	-11.0279
▁tourists	-11.028
▁homeowners	-11.0284
▁diplomat	-11.0286
▁plead	-11.0287
SON	-11.0288
▁Mission	-11.0289
▁boast	-11.029
▁arrival	-11.0294
▁Laura	-11.0295
▁Kar	-11.0297
▁historian	-11.0298
▁visual	-11.0298
qua	-11.0298
▁Orlando	-11.0302
EN	-11.0302
▁Moon	-11.0305
:	-11.0317
▁Beside	-11.0323
▁exclusive	-11.0329
AC	-11.0331
▁requir	-11.0333
▁Bryant	-11.0334
▁grants	-11.0339
▁Color	-11.0339
▁lowest	-11.034
▁register	-11.0341
▁frustration	-11.0341
▁prospects	-11.0341
▁Islam	-11.0347
aw	-11.0347
▁seeds	-11.0348
50	-11.035
▁relative	-11.0358
▁Turn	-11.0359
▁rape	-11.0361
▁resistance	-11.0361
53	-11.0362
▁Fed	-11.0363
▁rally	-11.0364
▁universities	-11.0365
▁Officials	-11.0366
▁hunting	-11.0367
▁rental	-11.0367
▁Exchange	-11.0369
▁complaint	-11.0369
▁viewed	-11.0372
▁passage	-11.0373
rated	-11.0376
▁beside	-11.0377
stein	-11.0381
▁preparation	-11.0382
▁Max	-11.0385
▁Maine	-11.0385
▁painted	-11.039
▁Sure	-11.0395
▁vulnerable	-11.0401
▁clinic	-11.0405
▁starr	-11.0408
▁distribution	-11.0409
▁burned	-11.0409
▁audiences	-11.0417
▁18-	-11.0417
▁picking	-11.0419
▁prisoners	-11.042
▁dancing	-11.0421
ash	-11.0429
cut	-11.0432
▁Ber	-11.0433
▁photographer	-11.0433
▁Ru	-11.0433
▁Treasury	-11.0437
▁Child	-11.0438
iz	-11.044
plus	-11.044
▁Ranch	-11.0443
▁devoted	-11.0446
▁permit	-11.0447
▁affordable	-11.0448
▁jet	-11.0454
▁captain	-11.0457
▁boil	-11.0459
32	-11.0459
▁86	-11.0464
▁sculpture	-11.0465
cal	-11.0467
▁extent	-11.0469
▁fabric	-11.0473
▁onions	-11.0474
▁whites	-11.0474
▁Plan	-11.0477
▁dreams	-11.0479
▁participants	-11.048
ala	-11.0486
fin	-11.0487
▁protests	-11.0492
▁dump	-11.0495
▁reforms	-11.0496
refore	-11.0498
▁lease	-11.0498
▁tragedy	-11.0505
▁Clayton	-11.0506
▁index	-11.051
▁literally	-11.0513
ado	-11.0513
▁unknown	-11.0516
▁extraordinary	-11.0517
▁AL	-11.0519
▁Murray	-11.0522
ative	-11.0524
▁landed	-11.0529
▁experiences	-11.053
▁Short	-11.0535
▁perception	-11.0538
▁Gingrich	-11.0542
▁exposure	-11.0542
▁Ireland	-11.0546
▁Parkway	-11.0547
▁moon	-11.0547
▁documentary	-11.055
▁Butler	-11.0554
▁eastern	-11.0554
▁Records	-11.0555
▁Buck	-11.0557
▁appearances	-11.0557
▁destruction	-11.0558
▁glad	-11.0563
▁mild	-11.0563
▁1978	-11.0563
▁Ni	-11.0565
▁Randy	-11.0571
▁pack	-11.0573
league	-11.0575
▁Tiger	-11.0575
▁tap	-11.0576
maker	-11.0577
▁pickup	-11.0578
▁developer	-11.0578
▁8:30	-11.0584
▁dates	-11.0585
▁93	-11.0586
▁defending	-11.0588
▁Hawaii	-11.0588
▁noise	-11.0589
▁branch	-11.0589
▁observers	-11.059
▁frozen	-11.0595
▁Bad	-11.0596
▁Wolf	-11.0598
▁Within	-11.0599
▁extension	-11.0599
▁Sanders	-11.06
▁Shi	-11.0602
▁hide	-11.0603
▁Heights	-11.0603
▁belt	-11.0604
let	-11.061
▁popularity	-11.0612
▁Net	-11.0615
ert	-11.0618
ator	-11.0619
tch	-11.0619
programming	-11.0619
▁Junior	-11.0619
gy	-11.062
76	-11.062
66	-11.0623
▁Deal	-11.0627
▁approve	-11.0628
▁Boys	-11.0629
▁NASA	-11.0635
▁departure	-11.0639
▁Juan	-11.0643
▁Nebraska	-11.0652
▁CNN	-11.0653
▁transit	-11.0654
▁$$	-11.0658
▁87	-11.0659
▁athlete	-11.0663
▁soldier	-11.0666
▁hike	-11.0666
▁Given	-11.067
▁Ellis	-11.0671
▁satellite	-11.0671
▁personally	-11.0674
▁wore	-11.0675
▁breaks	-11.0675
▁lawsuits	-11.0676
▁renew	-11.0681
▁Po	-11.0682
▁surge	-11.0684
▁presentation	-11.0685
▁signal	-11.0685
51	-11.0687
▁reluctant	-11.0689
▁Jets	-11.0692
▁boxes	-11.0693
▁intent	-11.0693
▁unexpected	-11.0697
▁ON	-11.0701
nic	-11.0701
▁Alliance	-11.0701
▁vary	-11.0702
600	-11.0704
af	-11.071
cor	-11.0714
engaged	-11.0717
▁Montana	-11.0718
▁99	-11.0719
▁obtain	-11.0721
▁scholarship	-11.0722
▁v	-11.0722
▁partnership	-11.0722
▁compare	-11.0722
▁segment	-11.0726
fire	-11.0726
hop	-11.0729
▁emphasis	-11.073
▁ranch	-11.0732
zi	-11.0733
ray	-11.0734
▁Greek	-11.0734
▁dying	-11.0734
▁Farm	-11.074
▁covering	-11.074
▁caution	-11.0743
The	-11.0746
▁root	-11.0749
▁Dar	-11.075
▁Knight	-11.0754
▁guidelines	-11.0755
▁Hope	-11.0755
▁raid	-11.0755
▁Had	-11.0756
▁tool	-11.0758
▁unfair	-11.0759
▁harsh	-11.0763
▁possession	-11.0765
▁Mother	-11.0768
▁agrees	-11.0769
▁salaries	-11.0771
▁Hey	-11.0773
US	-11.0775
▁covers	-11.0775
▁faculty	-11.0775
▁Justin	-11.0777
▁bite	-11.078
▁Falls	-11.0781
▁loves	-11.0782
▁requests	-11.0784
▁Rather	-11.0785
q	-11.0785
▁Matthew	-11.0786
▁consideration	-11.0786
▁flowers	-11.0787
SE	-11.0787
▁83	-11.0788
▁**26;	-11.0792
▁legitimate	-11.0796
▁dried	-11.0796
57	-11.0796
▁dirt	-11.08
din	-11.0802
▁$50	-11.0803
▁string	-11.0804
84	-11.0805
▁audit	-11.0807
▁Amendment	-11.0808
AR	-11.0811
▁Lebanon	-11.0813
▁talented	-11.0815
▁sophisticated	-11.0821
▁Rights	-11.0825
tte	-11.0826
▁doubled	-11.0826
-15	-11.0829
▁Previous	-11.0829
▁guards	-11.0831
▁reduc	-11.0832
▁qualify	-11.0836
▁invasion	-11.0838
▁Carr	-11.0838
▁bin	-11.0839
▁fault	-11.0842
▁originally	-11.0842
▁Mal	-11.0849
▁patrol	-11.085
ara	-11.085
▁explosion	-11.085
gle	-11.085
▁expanding	-11.0853
▁deck	-11.0854
▁Technology	-11.0854
▁nursing	-11.0854
▁pink	-11.0856
▁romantic	-11.0859
▁Gorbachev	-11.0863
▁Have	-11.0863
SA	-11.0864
▁significantly	-11.0865
▁donations	-11.0867
▁Kenne	-11.0867
▁wildlife	-11.0867
▁rolling	-11.087
82	-11.0871
ag	-11.0872
▁Muslims	-11.0875
▁Leon	-11.0875
▁pioneer	-11.0875
eg	-11.0876
▁Fr	-11.0879
▁witnesses	-11.088
ane	-11.0881
▁Yo	-11.0881
▁Ya	-11.0882
▁transferr	-11.0883
▁pet	-11.0887
▁grounds	-11.0889
▁suspected	-11.089
-16	-11.089
▁raises	-11.0894
▁recipes	-11.0897
▁rapidly	-11.0899
34	-11.0903
▁Urban	-11.0905
market	-11.0907
48	-11.0909
▁cells	-11.091
▁Bel	-11.091
▁Reid	-11.0911
▁Players	-11.0913
▁detailed	-11.0915
▁Willie	-11.0921
▁wounded	-11.0922
71	-11.0935
▁96	-11.0935
▁overtime	-11.0938
val	-11.0939
▁girlfriend	-11.094
▁16-	-11.0941
▁Asked	-11.0942
▁diversity	-11.0942
tle	-11.0946
▁therapy	-11.0947
IA	-11.095
▁method	-11.0951
▁sliced	-11.0951
▁Sandy	-11.0955
IL	-11.0955
▁gross	-11.096
▁effectively	-11.0962
▁Er	-11.0963
▁Mall	-11.0964
▁Early	-11.0972
▁wooden	-11.0973
▁inmates	-11.0975
ians	-11.0978
▁bath	-11.0978
▁sacrifice	-11.098
▁Grade	-11.098
iness	-11.0981
▁lifetime	-11.0982
▁maintenance	-11.099
▁Classic	-11.0991
▁bass	-11.0994
▁Foster	-11.0998
ura	-11.1
▁foods	-11.1
▁rid	-11.1
wing	-11.1002
▁portrait	-11.1003
▁beaten	-11.1005
▁trash	-11.1006
▁3/4	-11.1012
▁wines	-11.1014
▁Gaza	-11.1017
▁fled	-11.1017
▁attribute	-11.1019
▁alliance	-11.1019
▁professionals	-11.102
▁Bird	-11.1022
▁frame	-11.1025
▁Mer	-11.1028
▁explanation	-11.1031
babies	-11.1032
▁appeals	-11.1035
▁stirring	-11.1036
▁Karen	-11.1039
▁fortune	-11.104
▁conventional	-11.1042
▁Ham	-11.1042
▁mothers	-11.1043
▁stops	-11.1045
▁speaker	-11.105
▁musicians	-11.1054
▁Bor	-11.1055
▁Albert	-11.1055
▁tomato	-11.1056
▁retire	-11.106
▁Klein	-11.106
▁Georgetown	-11.106
▁marks	-11.1061
▁iron	-11.1064
▁Brand	-11.1064
▁civilians	-11.1064
▁promising	-11.1065
▁Nevada	-11.1066
▁Hal	-11.1072
▁attacked	-11.1084
▁Dream	-11.1084
tive	-11.109
▁Season	-11.1094
▁Bon	-11.1094
▁vital	-11.1099
▁outstanding	-11.1099
▁visible	-11.1101
▁retailers	-11.1102
▁demanding	-11.1102
tal	-11.1105
▁Vice	-11.1105
RE	-11.1105
▁squad	-11.1108
▁stream	-11.1112
▁Kent	-11.1117
▁na	-11.1119
▁bathroom	-11.1121
▁guitar	-11.1123
28	-11.1125
▁Lynch	-11.1126
▁Md	-11.1126
▁Communications	-11.1131
▁casual	-11.1133
▁Maria	-11.1133
cru	-11.1137
▁chairs	-11.1138
▁Berlin	-11.1142
▁winners	-11.1144
▁emerging	-11.1147
▁weapon	-11.1152
▁milligram	-11.116
▁assigned	-11.1164
▁Ti	-11.1175
▁fighters	-11.1176
▁Should	-11.1177
▁Care	-11.1178
▁Wil	-11.1181
▁dealers	-11.1181
▁obtained	-11.1182
▁registration	-11.1183
▁Governor	-11.1186
▁Few	-11.1186
▁Alexandria	-11.119
▁Eddie	-11.119
▁profile	-11.1192
▁TDs	-11.1193
54	-11.1196
▁bases	-11.12
▁cart	-11.1201
▁scientist	-11.1201
▁broader	-11.1203
▁Shakespeare	-11.1207
▁passenger	-11.1208
▁Ch	-11.1208
▁chamber	-11.1209
ris	-11.1212
▁Sharon	-11.1214
▁tears	-11.1218
▁lists	-11.1218
▁Books	-11.1219
▁locker	-11.1222
▁establishment	-11.1222
▁counts	-11.1223
▁pasta	-11.1224
▁ought	-11.1227
▁cheer	-11.123
▁fate	-11.123
fl	-11.1231
▁24-	-11.1232
▁define	-11.1232
▁copies	-11.1232
▁Ala	-11.1238
▁tens	-11.1241
▁presents	-11.1246
▁stroke	-11.1248
▁joy	-11.1252
▁generous	-11.1255
▁Express	-11.1255
▁walks	-11.1256
▁Record	-11.1259
▁deeper	-11.1261
▁PGA	-11.1268
bert	-11.1269
▁odds	-11.1269
▁Never	-11.1273
▁1972	-11.1274
49	-11.1274
▁91	-11.1275
▁evil	-11.1282
▁pipeline	-11.1282
▁equivalent	-11.1285
▁saturated	-11.1285
sville	-11.1286
ria	-11.1291
▁alarm	-11.1291
▁alert	-11.1293
▁strategic	-11.1293
handed	-11.1298
▁Rio	-11.1299
▁disappointed	-11.1313
▁shortage	-11.1315
▁Dole	-11.1316
▁aides	-11.1317
▁qualified	-11.1321
▁Sullivan	-11.1322
▁terrorists	-11.1336
▁lobby	-11.1337
▁Unfortunate	-11.1342
▁substance	-11.1342
▁drives	-11.1343
▁Bennett	-11.1345
▁finger	-11.1345
▁Armstrong	-11.1351
▁handled	-11.1353
▁hook	-11.1354
CA	-11.1356
▁forcing	-11.1357
▁Kan	-11.1357
▁gifts	-11.1364
▁elementary	-11.1365
▁update	-11.1366
▁Bur	-11.1368
▁causing	-11.1369
ily	-11.137
▁Dow	-11.1371
berry	-11.1373
▁Consider	-11.1378
horn	-11.1382
▁payroll	-11.1384
▁98	-11.1385
▁Chamber	-11.1389
▁seller	-11.139
▁shell	-11.1392
9,000	-11.1394
▁dialogue	-11.1395
▁Father	-11.1396
▁campaigns	-11.1399
▁broker	-11.14
▁Remove	-11.1404
▁Marc	-11.1405
▁toll	-11.1405
▁screening	-11.1406
▁89	-11.1409
▁Wells	-11.1412
▁articles	-11.1417
▁lean	-11.1418
▁Recent	-11.1419
ware	-11.1421
nytimes	-11.1422
▁Regional	-11.1425
▁presidency	-11.1425
▁violations	-11.1428
▁Arm	-11.1434
▁gambling	-11.1435
▁performing	-11.1435
▁wing	-11.1441
▁blast	-11.1444
RI	-11.1445
▁hidden	-11.1448
camera	-11.1449
▁surviv	-11.1449
mor	-11.145
▁protesters	-11.145
▁railroad	-11.1457
▁magic	-11.1457
▁react	-11.1459
▁Hard	-11.146
▁worrie	-11.1465
qu	-11.1465
-18	-11.1466
▁Cu	-11.1467
▁Executive	-11.147
▁lady	-11.1471
ju	-11.1472
▁pregnant	-11.1475
▁episode	-11.1475
▁resigned	-11.1478
ill	-11.1478
▁Northwest	-11.1481
▁Story	-11.1488
▁fence	-11.149
▁techniques	-11.15
▁incredible	-11.1505
ounce	-11.1507
▁Fi	-11.1508
ock	-11.1511
▁architect	-11.1512
▁strengthen	-11.1516
▁brilliant	-11.1519
▁buses	-11.1519
▁Note	-11.1521
▁1976	-11.1522
▁Bu	-11.1523
▁shareholders	-11.1524
▁immigrant	-11.1533
hon	-11.1535
▁Vo	-11.1535
▁approached	-11.1539
▁cooperation	-11.1542
▁element	-11.1544
▁Brandon	-11.1545
▁resume	-11.1546
▁rack	-11.1549
▁ankle	-11.1549
▁journalist	-11.1552
theless	-11.1556
▁buzz	-11.156
rie	-11.156
52	-11.156
.75	-11.1561
END	-11.1562
tan	-11.1564
▁Wallace	-11.1564
▁Kyle	-11.1566
ston	-11.1573
▁gasoline	-11.1573
ena	-11.1575
▁methods	-11.1576
either	-11.1576
▁awarded	-11.1577
▁Watson	-11.1578
las	-11.1579
und	-11.1579
ueen	-11.1585
▁overcome	-11.1587
▁Twitter	-11.1591
▁Radio	-11.1592
▁Patriots	-11.1594
▁lawn	-11.1594
▁Environmental	-11.1595
▁communication	-11.1599
▁chips	-11.1601
65	-11.1602
▁orchestra	-11.1604
▁minds	-11.1604
▁Inter	-11.1604
▁Hampshire	-11.1605
ese	-11.1605
▁baseman	-11.1605
▁investigat	-11.1609
▁Auburn	-11.1609
▁shirt	-11.1611
▁salmon	-11.1613
▁suspension	-11.1614
▁Control	-11.1614
▁bell	-11.1615
▁saving	-11.1615
cat	-11.1619
▁adopt	-11.1621
▁refer	-11.1621
ib	-11.1624
mont	-11.1627
▁summit	-11.1629
▁retreat	-11.1629
▁regulation	-11.1636
▁letting	-11.1638
▁Magic	-11.164
▁steep	-11.1641
gg	-11.1644
▁5:30	-11.1645
▁basement	-11.1646
▁protected	-11.1647
▁leap	-11.1648
▁organ	-11.1648
▁burst	-11.165
▁securities	-11.165
▁rolled	-11.1651
▁assists	-11.1655
rock	-11.1662
▁Blues	-11.1663
▁follows	-11.1665
iff	-11.1666
▁vocal	-11.1669
▁crowded	-11.167
▁attendance	-11.1673
▁Ba	-11.1673
eck	-11.1674
▁chest	-11.1674
▁horses	-11.1676
▁steak	-11.1676
▁Mets	-11.1677
▁vinegar	-11.1677
▁solutions	-11.1677
tel	-11.1677
▁Australian	-11.1682
▁Lord	-11.1682
minded	-11.1684
makers	-11.1684
▁Travis	-11.1686
▁seemingly	-11.1687
▁thousand	-11.1687
eb	-11.1688
bit	-11.169
▁Memphis	-11.1691
▁1968	-11.1693
▁organic	-11.1704
▁Whatever	-11.1705
▁reserve	-11.1705
▁affair	-11.1706
▁Ge	-11.1707
▁transport	-11.1708
▁absence	-11.1709
▁celebrity	-11.1709
▁prescription	-11.1709
▁terror	-11.1712
▁aging	-11.1713
▁practical	-11.1713
▁bother	-11.1718
wide	-11.1728
▁legend	-11.1732
generated	-11.1736
▁attending	-11.1739
▁obligation	-11.1741
▁Seven	-11.1743
▁grandfather	-11.1747
▁1975	-11.1747
▁allegedly	-11.1747
▁pitchers	-11.1751
▁joke	-11.1755
▁bull	-11.1757
mel	-11.1758
▁Cox	-11.1759
▁landing	-11.1762
38	-11.1766
▁comparison	-11.1767
▁Harrison	-11.1767
▁postseason	-11.1769
▁Gene	-11.1772
▁ambitious	-11.1777
▁minorities	-11.1778
▁tent	-11.1781
▁perfectly	-11.1782
▁edition	-11.1784
dic	-11.1785
▁Cruz	-11.1788
▁emerge	-11.1788
▁Mil	-11.1788
▁commit	-11.179
▁locked	-11.1794
▁peaceful	-11.1795
▁lightly	-11.1795
▁currency	-11.1798
▁shuttle	-11.18
ther	-11.1805
▁Player	-11.1806
▁thrill	-11.1808
▁wheel	-11.1809
▁spray	-11.1813
▁accompanie	-11.1816
▁$30	-11.1819
▁falls	-11.1821
▁boards	-11.1823
▁Cut	-11.1825
▁312	-11.1827
▁voter	-11.1827
▁Thanksgiving	-11.1828
▁Min	-11.1829
▁earning	-11.1831
door	-11.1832
tier	-11.1832
▁capabl	-11.1834
▁foul	-11.1836
▁Friends	-11.1841
box	-11.1842
▁Steelers	-11.1844
▁cry	-11.1844
▁compound	-11.1846
▁proof	-11.1851
▁midnight	-11.1851
ual	-11.1855
▁badly	-11.1855
▁employer	-11.186
▁tech	-11.1864
▁Saturdays	-11.1867
▁Work	-11.1869
▁350	-11.1871
▁Louisville	-11.1872
▁ethics	-11.1875
▁Norman	-11.1875
▁vegetable	-11.188
▁Glenn	-11.1881
▁remembered	-11.1881
▁persuade	-11.1882
▁Sugar	-11.1883
▁dating	-11.1886
▁20,000	-11.1889
▁aide	-11.189
▁sued	-11.1891
▁meets	-11.1894
▁212	-11.1895
▁tenure	-11.1897
▁storage	-11.1897
▁Girls	-11.1899
▁travelers	-11.1902
▁piano	-11.1904
▁picks	-11.1904
▁tips	-11.1904
▁Arena	-11.1909
elli	-11.1909
▁Amy	-11.1909
▁Syrian	-11.1909
▁grill	-11.191
▁6-5	-11.1912
gra	-11.1915
▁investor	-11.1915
card	-11.1916
▁suspects	-11.1916
▁1977	-11.1917
▁wages	-11.1919
▁testifie	-11.1919
▁premiere	-11.192
▁Corps	-11.192
sey	-11.1926
buried	-11.193
▁McC	-11.1933
▁Iraqis	-11.1937
▁Convention	-11.1939
90	-11.1939
▁prosecution	-11.1944
▁statewide	-11.1944
▁ho	-11.1944
▁Richardson	-11.1945
▁Masters	-11.1946
▁king	-11.1952
▁Come	-11.1953
▁em	-11.1955
home	-11.1956
▁violat	-11.1956
▁reduction	-11.1958
▁torture	-11.1962
▁Chase	-11.1964
▁bedroom	-11.1972
▁restore	-11.1972
▁RBI	-11.1973
ium	-11.1974
▁fierce	-11.1976
▁Angels	-11.1977
▁beneath	-11.1979
▁pursu	-11.198
▁scenario	-11.1981
▁physician	-11.1984
▁punishment	-11.1986
CE	-11.1987
grade	-11.1987
▁eliminat	-11.1991
▁reward	-11.1993
thirds	-11.1994
ect	-11.1995
▁Ocean	-11.1995
▁cocktail	-11.2
▁intend	-11.2
▁Cap	-11.2001
▁Angel	-11.2004
▁Ministry	-11.2004
▁Decatur	-11.2009
▁Plaza	-11.2009
illa	-11.2013
Off	-11.2014
raising	-11.2016
▁Conn	-11.2017
:45	-11.2019
ight	-11.202
itt	-11.202
▁situations	-11.2021
▁sideline	-11.2021
#	-11.2022
▁description	-11.2023
▁Cover	-11.2026
▁pending	-11.2026
▁voices	-11.2027
▁Fa	-11.2029
ram	-11.2035
▁threaten	-11.2035
▁nationally	-11.2041
▁Dance	-11.2041
▁equity	-11.2043
▁Worth	-11.205
▁suits	-11.2051
▁Nashville	-11.2052
▁stable	-11.2053
▁organizer	-11.2053
▁pulling	-11.2055
▁funeral	-11.2056
▁columnist	-11.2059
▁instant	-11.2062
▁spare	-11.2063
▁reservations	-11.2063
▁303-	-11.2063
▁convert	-11.2071
▁DNA	-11.2072
▁Colo	-11.2072
▁Mad	-11.2072
br	-11.2072
▁praise	-11.2082
▁Professor	-11.2084
can	-11.2086
▁Soon	-11.2088
▁Outlook	-11.2089
▁goods	-11.2091
▁pastor	-11.2093
▁Mom	-11.2094
▁knife	-11.2097
▁survival	-11.2101
▁Peace	-11.2104
▁regret	-11.2104
▁Colts	-11.2105
▁normally	-11.2105
900	-11.2106
▁carbon	-11.2114
▁handed	-11.2116
▁breath	-11.2119
▁chapter	-11.2119
indicated	-11.212
▁Com	-11.2122
▁Fitzgerald	-11.2122
▁context	-11.2122
▁scared	-11.2123
▁solo	-11.2125
▁tons	-11.2128
▁gym	-11.2133
▁rapid	-11.2133
lie	-11.2146
▁backup	-11.2147
len	-11.2147
▁Cat	-11.2148
▁MVP	-11.2151
ox	-11.2156
▁1-	-11.2159
▁703-	-11.216
▁Brothers	-11.2164
▁Organization	-11.2165
▁Toyota	-11.217
▁maximum	-11.217
▁Cre	-11.217
▁CORRECTION	-11.2174
▁reception	-11.2176
▁UC	-11.2176
▁enterprise	-11.2179
▁Wine	-11.2182
▁Almost	-11.2184
tri	-11.2188
▁solar	-11.2189
▁crisp	-11.2192
▁assessment	-11.2193
▁slip	-11.2194
▁bold	-11.2194
▁Meyer	-11.2194
▁definition	-11.2194
▁grades	-11.2196
▁bureau	-11.2198
▁emissions	-11.2203
▁Sweet	-11.2203
TS	-11.2205
▁sisters	-11.2207
▁Robin	-11.2207
▁Boulevard	-11.2213
▁8-	-11.2216
▁Peterson	-11.2217
hen	-11.2218
ug	-11.2219
shi	-11.222
▁indicate	-11.223
ome	-11.2233
▁duck	-11.2234
▁Policy	-11.2241
▁Hughes	-11.2244
▁harvest	-11.2246
speed	-11.2248
▁folk	-11.2248
▁Fish	-11.2251
▁gender	-11.2251
su	-11.2255
▁14-	-11.2256
▁Tribune	-11.2257
▁Tenn	-11.2259
founded	-11.2263
▁triple	-11.2267
▁mad	-11.2268
▁Barr	-11.227
▁wrap	-11.2272
referred	-11.2273
55	-11.2276
▁reviews	-11.2278
▁Jerusalem	-11.228
▁Ram	-11.2288
▁objects	-11.2288
▁silence	-11.229
▁banned	-11.229
▁impressed	-11.2291
▁attempted	-11.2293
▁Mu	-11.2294
▁slices	-11.2297
▁filing	-11.2297
zo	-11.23
oriented	-11.2302
▁Ren	-11.2303
▁9:30	-11.2305
dollar	-11.2305
tain	-11.2307
▁Littleton	-11.2308
▁installed	-11.2308
▁Harper	-11.231
▁Tyler	-11.2314
▁urge	-11.2315
cap	-11.2317
▁Congressional	-11.2319
▁informed	-11.2319
▁Mur	-11.2322
▁excuse	-11.2323
fr	-11.2326
bed	-11.2331
▁pays	-11.2335
del	-11.2342
▁answered	-11.2342
▁Jeffrey	-11.2343
▁Bal	-11.2344
▁1.5	-11.2347
▁blocked	-11.2347
▁adequate	-11.2348
▁Wind	-11.2348
▁Ty	-11.2351
NC	-11.2355
IS	-11.2356
ati	-11.2358
election	-11.236
▁hometown	-11.237
▁weekends	-11.2373
▁frustrated	-11.2374
▁lane	-11.2374
▁Gonzalez	-11.2376
▁contractors	-11.2377
▁spin	-11.2379
▁endure	-11.2381
▁closest	-11.2381
▁50,000	-11.2382
hy	-11.2384
▁Dale	-11.2385
▁brush	-11.2385
act	-11.2392
▁Hot	-11.2392
▁controls	-11.2394
▁shy	-11.2395
city	-11.2399
▁defined	-11.24
▁1973	-11.2401
denverpost	-11.2401
▁deserve	-11.2401
▁assignment	-11.2402
▁span	-11.2402
▁shore	-11.2403
▁recommend	-11.2407
▁strain	-11.2408
▁topic	-11.241
43	-11.2411
▁CU	-11.2414
6,000	-11.2416
▁Tommy	-11.2416
profile	-11.2419
▁Mor	-11.242
oli	-11.2421
▁Ana	-11.2422
▁earthquake	-11.2425
▁$9	-11.2427
▁underground	-11.2433
▁tag	-11.2435
white	-11.2436
▁banker	-11.2436
bel	-11.2437
▁fatal	-11.2442
▁Andre	-11.2446
▁bulk	-11.245
▁killer	-11.2453
▁proven	-11.2457
▁Name	-11.2458
▁comprehensive	-11.246
▁PC	-11.2462
lum	-11.2463
looking	-11.2464
▁Liberty	-11.247
▁ounces	-11.2473
▁Carroll	-11.2474
▁Along	-11.2474
▁longest	-11.2475
▁gm	-11.2475
gram	-11.2476
elle	-11.2482
▁tougher	-11.2483
▁install	-11.2486
▁ships	-11.2489
▁bands	-11.249
▁stability	-11.249
▁Try	-11.2494
▁Reynolds	-11.2494
▁Inside	-11.2494
▁costume	-11.2501
ement	-11.2504
▁1,500	-11.2512
▁Ralph	-11.2514
▁mini	-11.2517
uch	-11.2518
▁Lin	-11.2523
8,000	-11.2523
▁Griffin	-11.2524
▁ignor	-11.2527
▁hint	-11.253
▁reject	-11.2536
ET	-11.254
▁Rocky	-11.2541
▁mask	-11.2544
▁unclear	-11.2545
▁challenged	-11.2551
▁Hillary	-11.2552
▁unprecedented	-11.2553
▁arguments	-11.2555
▁spends	-11.2559
▁Luther	-11.2562
▁dramatical	-11.2562
▁subsequent	-11.2563
▁teache	-11.2565
▁useful	-11.2567
▁merger	-11.2572
▁teenagers	-11.2575
▁RHP	-11.2584
▁relay	-11.2584
▁pile	-11.2588
▁landmark	-11.2589
▁Marcus	-11.259
▁makers	-11.259
▁obstacle	-11.2593
▁greet	-11.2595
▁Inn	-11.2597
▁privilege	-11.26
nt	-11.2606
third	-11.261
▁desperate	-11.261
▁Dann	-11.2611
▁costly	-11.2612
▁Watch	-11.2615
sized	-11.2616
▁adventure	-11.2628
▁Safety	-11.2633
▁contender	-11.2635
▁mystery	-11.2638
▁flu	-11.264
▁Karl	-11.2646
▁Beat	-11.2646
ito	-11.2646
▁Bring	-11.2647
▁encouraging	-11.2648
▁punch	-11.2657
employed	-11.2657
▁sweep	-11.2659
▁investigate	-11.2663
▁administrative	-11.2663
▁portfolio	-11.2663
▁sheriff	-11.2668
▁literature	-11.2668
▁Sunni	-11.2669
▁fed	-11.267
▁mirror	-11.2673
▁Prize	-11.2674
▁pin	-11.2675
yo	-11.2676
▁shocked	-11.2678
▁Students	-11.268
scale	-11.2681
▁Tar	-11.2681
▁flavors	-11.2682
▁ear	-11.2682
▁Gil	-11.2695
right	-11.2695
▁successfully	-11.2697
▁dressing	-11.2697
ink	-11.2704
▁Beck	-11.2704
▁universal	-11.2708
▁Ever	-11.2709
▁architecture	-11.2713
37	-11.2716
uin	-11.2716
▁Packers	-11.272
eh	-11.272
▁cheaper	-11.2721
▁Mont	-11.2722
▁YORK	-11.2723
▁array	-11.2724
▁muscle	-11.2725
▁strict	-11.2729
▁searching	-11.273
▁Tucker	-11.2732
▁Arnold	-11.2734
zer	-11.2734
▁parliament	-11.2738
▁trains	-11.2742
▁Things	-11.2748
▁lined	-11.2751
▁Pop	-11.2753
▁Rush	-11.2756
▁bombs	-11.2763
▁militia	-11.2764
▁promoting	-11.2764
▁officially	-11.2767
▁theft	-11.277
▁Stan	-11.2772
▁mount	-11.2773
▁Dog	-11.278
▁Bud	-11.2783
▁Sex	-11.2784
away	-11.2789
▁Saints	-11.2789
▁finishing	-11.279
▁differently	-11.2792
▁cite	-11.2794
▁Earlier	-11.2799
▁recovered	-11.2804
▁Trust	-11.2804
▁optimistic	-11.2804
▁Freedom	-11.2805
▁Gun	-11.2806
▁consist	-11.2807
▁Studies	-11.281
▁Castro	-11.2813
▁overwhelming	-11.2814
▁101	-11.2816
▁powers	-11.2819
▁Methodist	-11.2819
▁virus	-11.2824
▁donated	-11.2827
▁Cohen	-11.2831
▁riot	-11.2831
held	-11.2833
▁slave	-11.2834
▁tuition	-11.2835
▁Tyson	-11.2836
▁sweat	-11.2836
▁kicked	-11.2839
▁trails	-11.284
500	-11.284
▁detective	-11.284
▁pleasure	-11.2845
▁Using	-11.2845
▁chat	-11.2847
▁hill	-11.2848
▁Lakewood	-11.2848
▁genetic	-11.2849
▁superintendent	-11.285
▁hung	-11.285
▁Leonard	-11.2854
▁genuine	-11.2855
▁integrity	-11.2855
je	-11.2856
av	-11.2857
▁translate	-11.2858
▁casino	-11.2865
bal	-11.2867
nick	-11.2868
▁depict	-11.287
▁Roswell	-11.2871
▁Being	-11.2875
▁Electric	-11.2875
▁firing	-11.2876
▁ranking	-11.2876
▁Ab	-11.2877
▁pleased	-11.2877
▁Egyptian	-11.2884
▁Ruth	-11.2885
▁Wis	-11.2885
▁execution	-11.2886
▁custody	-11.2891
▁Southeast	-11.2891
▁Ger	-11.2892
▁missile	-11.2893
▁Lions	-11.2894
▁sentiment	-11.2896
uk	-11.2896
ata	-11.2897
▁warrant	-11.2898
cu	-11.29
▁di	-11.2901
MP	-11.2902
TON	-11.2902
▁1969	-11.2908
▁rounds	-11.2909
lee	-11.2911
▁nowhere	-11.2917
▁administrators	-11.2917
▁argu	-11.2921
▁Set	-11.2921
▁assist	-11.2923
▁Bro	-11.2924
▁Fri	-11.293
▁poster	-11.2931
▁chip	-11.2932
▁bonus	-11.2937
▁UCLA	-11.2937
action	-11.2939
fo	-11.294
▁Anna	-11.294
▁Follow	-11.2942
▁Texans	-11.2943
die	-11.2945
lar	-11.2946
▁Lamar	-11.2947
▁sorry	-11.2947
▁Bailey	-11.2948
tr	-11.2949
▁dynamic	-11.2956
▁dessert	-11.296
▁plea	-11.2963
▁Tokyo	-11.2963
▁nominat	-11.2968
▁Michelle	-11.2969
▁connections	-11.297
friendly	-11.2971
▁97	-11.2973
▁laughing	-11.2974
▁tunnel	-11.2978
▁publishing	-11.2979
▁Think	-11.2986
illo	-11.2987
eri	-11.299
▁burning	-11.2991
▁System	-11.2992
▁Latino	-11.2993
▁Holy	-11.2993
▁Wade	-11.2994
ona	-11.2996
▁youngest	-11.2997
▁offseason	-11.2997
▁Roosevelt	-11.2999
▁loaded	-11.3001
veraging	-11.3003
▁leather	-11.3004
▁insurer	-11.3007
▁drain	-11.301
▁Money	-11.3011
AD	-11.3012
▁sharply	-11.3017
▁Please	-11.302
▁rotation	-11.302
lic	-11.3021
▁psychological	-11.3025
▁Panthers	-11.303
▁catcher	-11.3033
west	-11.3034
▁202-	-11.3036
▁1974	-11.3037
▁brutal	-11.3039
▁scrutiny	-11.304
▁Harvey	-11.304
▁participation	-11.3042
▁findings	-11.3043
▁Corporation	-11.3046
▁Securities	-11.3046
▁dirty	-11.3046
▁physically	-11.3046
-21	-11.3048
▁tourist	-11.3048
▁1930	-11.3052
▁pants	-11.3055
▁crafts	-11.3055
ST	-11.3056
▁Gibson	-11.3061
▁citing	-11.3062
▁Associates	-11.3063
▁Drug	-11.3063
▁Lynn	-11.3064
▁Eight	-11.3071
▁Restaurant	-11.3072
▁grain	-11.3073
fish	-11.3073
▁Shaw	-11.3075
table	-11.3075
lat	-11.3078
▁Hamas	-11.308
▁projected	-11.3081
▁opener	-11.3082
▁billions	-11.3084
▁Poll	-11.3086
▁tear	-11.3086
▁counted	-11.3088
▁cloud	-11.309
▁fingers	-11.3093
uit	-11.3094
▁balanced	-11.3097
▁plates	-11.3097
than	-11.3097
ending	-11.31
▁enthusiasm	-11.3103
▁trick	-11.3103
part	-11.3104
▁Han	-11.3105
▁Sky	-11.3109
▁forecast	-11.3109
▁links	-11.3109
▁Baylor	-11.311
▁dropping	-11.311
▁1967	-11.3112
▁Parents	-11.3113
▁signature	-11.3114
▁Fresh	-11.3115
▁files	-11.3119
▁40-	-11.312
▁rivals	-11.312
▁Eve	-11.3126
▁Pass	-11.3126
▁tanks	-11.3128
ches	-11.3129
▁wise	-11.313
yer	-11.3131
OL	-11.3134
▁canceled	-11.3135
▁Born	-11.3136
▁STARS	-11.314
▁Kay	-11.314
ui	-11.314
▁technique	-11.3141
▁potato	-11.3141
vy	-11.3142
▁Julie	-11.3142
▁leak	-11.3143
▁deadly	-11.3144
▁Lakers	-11.3145
▁approximate	-11.315
▁patent	-11.3151
▁grip	-11.3151
▁700	-11.3151
▁apple	-11.3155
pitched	-11.3155
▁horror	-11.3155
▁spotlight	-11.3156
nie	-11.3157
▁evident	-11.3161
▁teenage	-11.3161
sex	-11.3162
▁Yu	-11.3163
▁skill	-11.3164
▁knocked	-11.3166
▁Bosnia	-11.3168
▁diplomatic	-11.3169
▁municipal	-11.3171
▁bat	-11.3171
Connor	-11.3174
form	-11.3174
▁divide	-11.3178
▁gallery	-11.3179
▁cheat	-11.3179
ky	-11.3185
▁Very	-11.3185
▁Dakota	-11.3187
▁770-	-11.319
▁Shore	-11.3195
▁profound	-11.3199
▁momentum	-11.3213
▁stupid	-11.3213
lay	-11.3215
▁Abu	-11.3223
▁cattle	-11.3224
▁Drew	-11.3228
▁magazines	-11.3229
▁shrink	-11.3229
▁drinks	-11.323
▁scrap	-11.3231
▁charm	-11.3235
sel	-11.3236
▁grandchildren	-11.3236
▁existence	-11.3236
▁Insurance	-11.324
▁centuries	-11.3245
▁unfortunate	-11.3245
▁Current	-11.3245
uc	-11.3248
▁convince	-11.3248
▁Global	-11.3251
▁highlight	-11.3251
▁select	-11.3252
▁Wash	-11.3254
▁1-0	-11.3256
▁classical	-11.3257
▁Design	-11.326
▁Je	-11.3263
▁ME	-11.3264
▁Jazz	-11.3267
▁poet	-11.3269
▁attached	-11.3272
▁balls	-11.3275
36	-11.3278
42	-11.3278
301	-11.328
▁Henderson	-11.3282
▁du	-11.3284
▁bio	-11.3284
bin	-11.3285
person	-11.3288
nes	-11.3292
▁Idaho	-11.3293
▁Dutch	-11.3294
▁timing	-11.3294
▁guaranteed	-11.3298
▁Lopez	-11.3298
▁destination	-11.3304
▁Bishop	-11.3304
▁fiction	-11.3304
▁que	-11.3304
▁journalism	-11.3305
▁Bernard	-11.3306
▁economics	-11.3307
▁elegant	-11.3309
▁Standard	-11.3309
▁trends	-11.3313
ei	-11.3313
▁permission	-11.3315
▁Duncan	-11.332
▁awareness	-11.3323
▁Dad	-11.3323
under	-11.3325
ID	-11.3327
▁mill	-11.333
▁consensus	-11.3331
▁Fourth	-11.3333
▁charity	-11.3336
▁cease	-11.3337
burn	-11.3339
▁Marin	-11.334
▁lobbying	-11.3341
▁cocaine	-11.3341
▁intervention	-11.3341
▁scratch	-11.3342
▁valley	-11.3347
▁Laden	-11.3347
SI	-11.3351
▁Fine	-11.3352
some	-11.3354
▁toys	-11.3355
▁Girl	-11.336
DI	-11.3362
▁torn	-11.3367
▁Thank	-11.337
▁departments	-11.3371
MAN	-11.3371
▁Lost	-11.3373
▁batting	-11.3374
▁Interstate	-11.3374
▁overhaul	-11.3375
▁operated	-11.338
▁businessman	-11.3381
▁exploit	-11.3383
▁decent	-11.3388
▁owe	-11.339
▁Start	-11.3391
hole	-11.3392
▁maintained	-11.3393
▁etc	-11.3393
mus	-11.3395
▁Des	-11.3395
ua	-11.3403
▁13-	-11.3403
▁7-	-11.3405
▁NASCAR	-11.3406
▁Alamo	-11.3409
▁180	-11.3411
▁Hurricane	-11.3411
▁boats	-11.3413
wick	-11.3415
▁legislature	-11.3417
▁modify	-11.3417
85	-11.3417
▁apartments	-11.3419
MI	-11.342
unt	-11.3421
invested	-11.3423
▁blues	-11.3425
▁Persian	-11.3427
▁hitter	-11.3428
▁Joan	-11.343
▁proportion	-11.3433
▁warming	-11.3435
▁shopper	-11.3437
ula	-11.3439
▁Hol	-11.344
▁sour	-11.3444
seat	-11.3446
▁Troy	-11.345
▁outrage	-11.3452
▁Mid	-11.3455
fat	-11.3459
▁reverse	-11.346
▁Natural	-11.3461
▁favored	-11.3466
▁admire	-11.3468
▁threatening	-11.347
gel	-11.3471
-70	-11.3473
▁providers	-11.3473
▁dominate	-11.3474
▁priorities	-11.3477
▁Veteran	-11.3487
▁Vincent	-11.3487
▁operators	-11.3488
list	-11.3491
▁PA	-11.3492
▁trillion	-11.3492
▁considerable	-11.3493
ok	-11.3496
▁Tre	-11.3497
▁engage	-11.3497
▁graduation	-11.3499
gue	-11.3502
▁runner	-11.3503
▁topped	-11.3505
▁concentrate	-11.3505
▁EPA	-11.3506
▁rolls	-11.3506
gn	-11.3507
▁privately	-11.351
▁Gas	-11.3512
▁accord	-11.3513
▁Said	-11.3518
▁Pine	-11.352
▁Holiday	-11.352
▁accommodate	-11.352
▁civic	-11.352
ole	-11.352
7,000	-11.3521
▁Webb	-11.3524
▁contribution	-11.3525
▁subtle	-11.3526
▁Palmer	-11.3526
▁Ste	-11.3526
▁disc	-11.3528
▁Front	-11.353
▁phones	-11.353
▁teammate	-11.3532
▁Costa	-11.3533
▁Coleman	-11.3535
▁forth	-11.3535
▁delayed	-11.3535
▁Housing	-11.3536
▁Report	-11.3537
▁sink	-11.354
▁Pakistani	-11.354
▁publicity	-11.3541
▁petition	-11.3542
▁stated	-11.3542
▁SP	-11.3542
▁Spa	-11.3542
700	-11.3543
▁Hunt	-11.3543
IP	-11.3547
▁Canyon	-11.3547
▁Low	-11.3548
▁Gate	-11.355
nn	-11.3553
nan	-11.3554
▁Use	-11.3555
▁110	-11.3556
▁sleeping	-11.3558
▁motor	-11.3559
▁Orchestra	-11.3563
▁Cold	-11.3564
▁Ky	-11.357
▁indication	-11.3571
ook	-11.3572
new	-11.3574
▁**27;	-11.3574
▁Bonds	-11.3575
▁log	-11.3582
▁1940	-11.3584
▁leagues	-11.3586
▁100-	-11.3586
▁principles	-11.3592
▁17-	-11.3595
▁drought	-11.3596
▁requested	-11.36
▁Blake	-11.3602
load	-11.3604
▁workout	-11.3605
▁negotiate	-11.3605
▁cluster	-11.3607
▁rides	-11.361
▁spectacular	-11.3613
▁carpet	-11.3613
range	-11.3615
▁Tax	-11.3617
▁uncertain	-11.3618
hard	-11.3618
▁fantasy	-11.3618
▁Regard	-11.3619
▁Lt	-11.362
▁deploy	-11.3622
▁Manager	-11.3625
PA	-11.3626
▁mentally	-11.3626
▁farms	-11.3629
▁ambassador	-11.3629
▁dominant	-11.3633
▁Benjamin	-11.364
▁barbecue	-11.364
▁inevitable	-11.3641
ose	-11.3642
▁province	-11.3643
▁buyer	-11.3643
ico	-11.3651
▁latter	-11.3652
▁Suite	-11.3654
▁crab	-11.3654
▁height	-11.3658
▁sing	-11.3659
fully	-11.3663
▁2-0	-11.3663
▁Ind	-11.3668
▁Hudson	-11.3668
▁snap	-11.3673
ets	-11.3675
▁Jesse	-11.3678
▁dig	-11.3682
▁drill	-11.3683
▁Less	-11.3684
▁communicate	-11.3685
▁5-10	-11.3685
▁mining	-11.3687
olo	-11.3687
largest	-11.3687
▁Branch	-11.3689
▁export	-11.3694
▁categories	-11.3696
▁Schools	-11.3696
▁Athens	-11.3696
▁endless	-11.3696
ire	-11.3699
▁runners	-11.3701
▁Grace	-11.3704
tur	-11.3705
▁bow	-11.3709
log	-11.3713
▁Leader	-11.3715
▁800-	-11.3718
▁condemn	-11.3723
▁Bryan	-11.3724
▁jokes	-11.3724
▁item	-11.3727
▁Samuel	-11.3729
▁HIV	-11.373
▁awful	-11.3731
▁Stir	-11.3731
▁donor	-11.3733
▁Box	-11.3734
▁nuts	-11.3737
ius	-11.3739
▁chart	-11.374
▁9-	-11.374
▁Barack	-11.3741
▁Caribbean	-11.3746
▁Pirates	-11.3746
▁Chrysler	-11.3751
Times	-11.3753
▁absorb	-11.3755
▁Brady	-11.3756
▁Bond	-11.3759
▁pause	-11.376
▁minced	-11.3763
▁detect	-11.3764
▁shower	-11.3765
ological	-11.377
▁swept	-11.3771
▁exam	-11.3772
▁Kirk	-11.3774
▁conservation	-11.3775
ku	-11.3777
▁Alto	-11.3779
▁counterpart	-11.378
▁replied	-11.378
▁Sub	-11.3784
team	-11.3785
▁utilities	-11.3785
▁inspiration	-11.3786
▁crowds	-11.3787
▁Gates	-11.3788
▁confirm	-11.3788
▁transplant	-11.3791
▁delicate	-11.3796
▁curb	-11.3796
▁pit	-11.3797
▁cleaning	-11.3798
▁Palo	-11.3799
burg	-11.38
▁counseling	-11.3802
cus	-11.3803
▁slot	-11.3806
39	-11.3807
▁Bear	-11.3809
▁Makes	-11.3813
▁broth	-11.3813
lick	-11.3814
▁toxic	-11.3815
IE	-11.3815
att	-11.3824
▁Youth	-11.3826
▁Casey	-11.3829
▁quot	-11.3832
▁Fairfax	-11.3835
▁superior	-11.3835
▁Jessica	-11.3836
▁politician	-11.3837
▁Clay	-11.384
▁fried	-11.384
▁isolated	-11.3851
▁wreck	-11.3853
▁occupation	-11.3853
▁rated	-11.3854
▁lamb	-11.3854
▁profession	-11.3854
▁respective	-11.3861
▁Stein	-11.3861
▁halt	-11.3862
az	-11.3862
▁Metropolitan	-11.3864
▁Affairs	-11.387
▁Putin	-11.3872
▁terminal	-11.3875
▁seminar	-11.3875
▁checked	-11.3875
▁afterward	-11.3877
▁wondering	-11.3878
▁Anti	-11.3879
▁households	-11.3885
par	-11.3886
fashioned	-11.3886
▁Half	-11.3886
▁emotions	-11.3886
▁bust	-11.3887
▁honey	-11.3887
gging	-11.3891
▁mentor	-11.3892
▁tribute	-11.3892
HA	-11.3894
court	-11.3895
face	-11.3895
▁Motor	-11.3896
▁ratio	-11.3902
▁violation	-11.3902
▁memorial	-11.3903
▁Continental	-11.3903
▁designers	-11.3904
eva	-11.3906
▁crossing	-11.3906
▁tourism	-11.3907
▁elaborate	-11.3909
▁Rosa	-11.391
▁opinions	-11.391
nell	-11.391
enberg	-11.3912
▁circuit	-11.3916
▁routes	-11.3918
▁format	-11.3919
▁lure	-11.3919
▁Grill	-11.3919
▁penalties	-11.392
▁worship	-11.392
wheel	-11.3923
▁Boeing	-11.3926
▁Yeah	-11.3932
▁Marines	-11.3933
LY	-11.3933
▁secondary	-11.3933
▁fleet	-11.3935
▁reserved	-11.3938
▁Coalition	-11.3943
▁legendary	-11.3944
▁missiles	-11.3944
▁4,000	-11.3944
▁credibility	-11.3949
▁vanilla	-11.3949
▁participat	-11.3952
▁weird	-11.3955
▁slide	-11.3956
▁catches	-11.3962
▁McG	-11.3962
▁Eagle	-11.3963
33	-11.3964
▁database	-11.3966
▁Hand	-11.3968
▁exact	-11.3969
▁wondered	-11.3969
▁sacks	-11.3972
▁winds	-11.3972
▁duties	-11.3978
▁sweeping	-11.3982
▁suite	-11.3983
profit	-11.3984
UR	-11.3984
▁semi	-11.3985
▁lock	-11.3987
IR	-11.3987
▁memo	-11.3988
▁Neil	-11.3992
▁mature	-11.3993
▁execute	-11.3993
▁skillet	-11.3995
▁occupied	-11.3995
▁custom	-11.3996
▁wanting	-11.3997
▁Midwest	-11.4
▁Getting	-11.4007
▁Pu	-11.4008
▁advocacy	-11.4009
▁Brett	-11.4012
▁poetry	-11.4012
▁journal	-11.4015
▁5-11	-11.4017
▁Yeltsin	-11.4017
▁Riley	-11.4019
▁Bart	-11.4022
▁Talk	-11.4023
▁anonymity	-11.4023
▁vaccine	-11.4023
▁Win	-11.4024
▁11-	-11.4027
▁mph	-11.4031
▁Sierra	-11.4034
degree	-11.404
▁fake	-11.4043
▁Plus	-11.4043
▁realistic	-11.4043
▁violate	-11.4046
▁greens	-11.4049
piece	-11.405
▁fastest	-11.4051
boy	-11.4052
▁Dead	-11.4053
▁chefs	-11.4057
hill	-11.4058
▁aboard	-11.4058
▁bicycle	-11.406
▁excess	-11.4062
▁WASHINGTON	-11.4063
▁colorful	-11.4066
Ro	-11.4078
▁deer	-11.4079
▁accusation	-11.408
▁1971	-11.4083
▁regulatory	-11.4083
▁consume	-11.4083
lane	-11.4084
▁ruin	-11.4084
eau	-11.4084
▁courage	-11.4086
▁2.5	-11.4086
▁loyal	-11.4086
lyn	-11.4087
▁Joel	-11.4088
▁del	-11.4095
▁legally	-11.4098
bri	-11.4098
▁Cherry	-11.4098
ls	-11.4102
▁True	-11.4102
sur	-11.4102
▁soar	-11.4103
▁excitement	-11.4115
sis	-11.412
▁stunning	-11.4121
▁Kenny	-11.4122
▁Speaker	-11.4122
▁Minn	-11.4124
roll	-11.4126
▁Margaret	-11.4127
▁bubble	-11.4127
▁drilling	-11.4127
var	-11.4134
▁emphasize	-11.4138
▁grilled	-11.4138
▁urging	-11.4138
figured	-11.4138
▁Martha	-11.4139
▁uncle	-11.4141
▁slice	-11.4142
cc	-11.4145
▁homers	-11.4149
▁Check	-11.4154
▁ambition	-11.4156
▁Wildlife	-11.4156
▁Blair	-11.4157
▁grave	-11.4157
Cola	-11.4157
▁Test	-11.4161
▁difficulty	-11.4165
seeded	-11.4166
▁Lang	-11.417
▁30,000	-11.4171
▁Vol	-11.4176
cing	-11.4176
▁toilet	-11.4177
▁Jacob	-11.4177
owner	-11.4178
▁influential	-11.4179
▁Mat	-11.4181
▁Remember	-11.4181
▁Roll	-11.4182
ale	-11.4184
▁verdict	-11.4185
▁hills	-11.4187
reaches	-11.4188
▁floors	-11.4189
mit	-11.419
▁pine	-11.419
303	-11.419
▁specialty	-11.4191
▁shout	-11.4192
▁pursuit	-11.4192
▁restored	-11.4195
aged	-11.4195
ments	-11.4199
▁echo	-11.4199
▁weaken	-11.4201
▁Roth	-11.4203
▁cat	-11.4207
▁wisdom	-11.4208
▁surrender	-11.4208
▁Pick	-11.4209
▁Fu	-11.4212
▁installation	-11.4215
▁cornerback	-11.4216
▁rocket	-11.4216
▁booth	-11.4217
▁administrator	-11.4219
zy	-11.4219
▁subsidies	-11.422
▁bi	-11.4225
og	-11.4227
▁load	-11.4227
▁negotiat	-11.4229
▁touched	-11.4231
▁mandate	-11.4233
AT	-11.424
▁Oliver	-11.4243
center	-11.4245
▁arch	-11.4246
▁tackles	-11.4247
aries	-11.4249
▁Put	-11.4249
▁agricultural	-11.4249
▁Dis	-11.425
lis	-11.4252
▁FG	-11.4252
▁Ask	-11.426
▁preseason	-11.4262
▁weakness	-11.4263
oon	-11.4266
▁extract	-11.4267
▁predecessor	-11.4267
gin	-11.4272
▁infant	-11.4272
ute	-11.4274
▁Poland	-11.4275
▁subjects	-11.4276
▁Secret	-11.4278
▁literary	-11.4279
▁Curtis	-11.4279
▁Baby	-11.4279
▁Snow	-11.428
▁adapt	-11.428
owed	-11.4284
▁Cherokee	-11.4284
▁deliberate	-11.4284
▁veto	-11.4285
▁contractor	-11.4285
cast	-11.4286
▁profitable	-11.4289
▁parole	-11.4291
ora	-11.4296
▁Ariz	-11.4298
▁Indonesia	-11.4299
▁CON	-11.43
▁requirement	-11.4302
ima	-11.4316
bedroom	-11.4317
▁financially	-11.4318
▁racism	-11.432
▁Protection	-11.432
▁senators	-11.4321
▁humans	-11.4322
▁assess	-11.4323
▁examine	-11.4326
ato	-11.4326
▁Need	-11.4327
▁packages	-11.4328
-22	-11.4329
▁Sales	-11.4331
▁arrang	-11.4332
▁heritage	-11.4332
▁physicians	-11.4333
▁carrier	-11.4334
▁Porter	-11.4339
▁forum	-11.434
▁wrapped	-11.4342
▁Race	-11.4343
▁spa	-11.4344
▁phenomenon	-11.4349
▁correspondent	-11.4349
ello	-11.435
▁Auto	-11.4352
▁sponsors	-11.4354
▁Alice	-11.436
▁Ukraine	-11.4361
▁blanket	-11.4363
▁withdrawal	-11.4364
▁Vikings	-11.4365
▁converted	-11.4366
▁expire	-11.4367
▁transmission	-11.4367
▁garbage	-11.4367
LI	-11.4372
▁counting	-11.438
▁25-	-11.4382
▁compil	-11.4385
▁concerts	-11.4387
praised	-11.4388
▁courtroom	-11.4389
LO	-11.4389
ters	-11.439
▁Temple	-11.439
▁Tournament	-11.4391
▁Kra	-11.4395
▁Beyond	-11.4397
▁Lloyd	-11.4397
▁boyfriend	-11.4397
▁301-	-11.44
▁collector	-11.4402
▁grabb	-11.4403
▁enrollment	-11.4404
▁jam	-11.4405
▁reminder	-11.4414
ture	-11.4414
▁NL	-11.4416
▁channels	-11.4418
▁Federation	-11.4421
Constitution	-11.4421
▁abandon	-11.4422
▁Left	-11.4422
▁shade	-11.4423
bon	-11.4424
▁grab	-11.4424
itch	-11.4425
▁stiff	-11.4427
▁bias	-11.4429
▁monitoring	-11.443
▁batter	-11.443
▁Could	-11.4433
▁workplace	-11.4436
▁Wyoming	-11.4439
▁cotton	-11.4439
▁preferred	-11.4439
▁carriers	-11.4441
▁adoption	-11.4443
▁curriculum	-11.4445
▁ginger	-11.4445
matches	-11.4448
▁Cam	-11.4448
▁principle	-11.4449
▁Ju	-11.4449
▁Yale	-11.445
▁Greece	-11.4451
▁Modern	-11.4451
ient	-11.4451
▁Death	-11.4452
▁Christians	-11.4452
▁Silicon	-11.4463
▁Eventual	-11.4463
▁Got	-11.4465
▁Owens	-11.4465
▁Ki	-11.4466
▁twin	-11.4468
▁quote	-11.447
▁crown	-11.447
stopping	-11.447
▁teenager	-11.447
▁Crown	-11.4475
▁nightmare	-11.4475
▁gently	-11.4476
▁Gre	-11.4476
▁tragic	-11.4481
▁cabinet	-11.4483
▁probe	-11.4485
▁chase	-11.4486
million	-11.4486
2,000	-11.4486
▁FDA	-11.4488
ye	-11.4488
▁Cameron	-11.4493
▁judicial	-11.4496
rous	-11.4496
LA	-11.4496
▁coup	-11.45
selling	-11.4501
▁refrigerator	-11.4505
▁URL	-11.4505
▁offenders	-11.4506
▁***	-11.4508
▁2:30	-11.4514
▁Oil	-11.4518
▁hungry	-11.4519
▁candy	-11.452
▁Ore	-11.4523
▁patterns	-11.4524
ea	-11.4525
▁unveil	-11.4529
▁Consumer	-11.4529
▁dam	-11.453
▁1964	-11.4532
▁comeback	-11.4533
▁Travel	-11.4534
satisfied	-11.4535
▁juvenile	-11.4535
88	-11.4541
▁interim	-11.4542
OS	-11.4544
cost	-11.4548
▁Winston	-11.4549
▁battles	-11.4552
.99	-11.4557
sta	-11.4559
▁Coca	-11.456
▁Tell	-11.4562
▁Certain	-11.4565
ranked	-11.4566
▁approaches	-11.4573
▁visitor	-11.4573
ult	-11.4575
▁jurors	-11.4575
▁Gr	-11.4576
▁Honda	-11.4578
▁Whit	-11.4578
cr	-11.458
yl	-11.458
lor	-11.4581
▁oversight	-11.4583
▁perceived	-11.4586
▁await	-11.4586
CH	-11.4595
ova	-11.4595
▁intimate	-11.4595
▁disclosure	-11.4595
▁Sign	-11.4598
▁poem	-11.4601
▁survivors	-11.4604
▁freshly	-11.4605
▁substitute	-11.4607
▁Base	-11.4607
▁fighter	-11.4608
Ma	-11.4609
screen	-11.4609
▁10:30	-11.4611
brook	-11.4611
▁Jacksonville	-11.4612
shirt	-11.4613
▁corridor	-11.4614
▁elbow	-11.4614
▁biological	-11.4614
▁ridiculous	-11.462
▁pleasant	-11.462
▁teeth	-11.4623
▁Twenty	-11.4626
▁disappointment	-11.4626
▁Bla	-11.4629
bur	-11.4631
▁renovation	-11.4634
▁mud	-11.4635
▁developments	-11.4635
▁Oilers	-11.4635
cra	-11.4635
▁innovation	-11.4638
▁MA	-11.4639
▁youngster	-11.464
ath	-11.4643
gate	-11.4644
▁draws	-11.4646
▁Kill	-11.465
▁acceptable	-11.4651
▁tune	-11.4651
▁depression	-11.4652
SH	-11.4652
▁NO	-11.4658
▁Mun	-11.4658
▁Rated	-11.4661
lia	-11.4664
▁IT	-11.4673
▁enact	-11.4674
▁Between	-11.4675
▁Noon	-11.4678
▁compelling	-11.4678
▁Guy	-11.4679
▁crossed	-11.4682
▁Walt	-11.4684
▁overlook	-11.4685
▁Shu	-11.4685
▁guerrilla	-11.4687
▁psychologist	-11.4687
▁Sir	-11.4689
▁showcase	-11.469
▁marketplace	-11.4691
▁DVD	-11.4693
▁tribal	-11.4693
▁Budget	-11.4693
ving	-11.4696
▁Chiefs	-11.4697
▁acquisition	-11.4697
▁Lucas	-11.4699
EST	-11.47
4,000	-11.4703
ington	-11.4704
▁Rome	-11.4706
▁worn	-11.4709
▁pad	-11.4711
▁spoon	-11.4711
▁achiev	-11.4712
▁myth	-11.4713
▁50-	-11.4715
▁tail	-11.4723
▁Tan	-11.4724
▁NA	-11.4725
402	-11.4725
▁commuter	-11.4726
▁purchases	-11.4728
▁safer	-11.4729
uz	-11.473
▁cleared	-11.4731
▁Med	-11.4733
▁traditionally	-11.4734
▁farmer	-11.4735
▁125	-11.4736
▁willingness	-11.4736
▁lifted	-11.4736
▁Chad	-11.4744
▁mushrooms	-11.4745
▁simmer	-11.4745
ain	-11.4746
▁whenever	-11.4747
▁pitches	-11.4752
▁rec	-11.4753
▁Mack	-11.4757
▁hosts	-11.4759
▁choosing	-11.4761
▁drift	-11.4761
▁vendors	-11.4762
▁Em	-11.4765
▁checking	-11.4765
walk	-11.4767
▁partisan	-11.4769
▁phrase	-11.4771
▁Luis	-11.4771
▁Stern	-11.4774
▁accessible	-11.4777
bl	-11.4779
▁Card	-11.4779
-25	-11.478
▁endorsement	-11.4781
▁pray	-11.4782
▁Mars	-11.4783
▁discussing	-11.4785
▁disorder	-11.4788
▁Resources	-11.479
▁Vietnamese	-11.4792
▁Gill	-11.4793
▁Fall	-11.4795
▁quarters	-11.48
▁evolution	-11.4804
▁Living	-11.4804
▁hurricane	-11.4804
▁IBM	-11.4804
▁fax	-11.4804
▁Gerald	-11.4805
inger	-11.4807
▁appealing	-11.4813
▁suspicion	-11.4816
▁Walsh	-11.4818
▁Pac	-11.4819
▁slight	-11.4819
▁Puerto	-11.4823
▁withdraw	-11.4823
▁gradually	-11.4823
▁reader	-11.4826
quality	-11.4827
▁assembl	-11.4829
▁replac	-11.483
▁Elvis	-11.483
wall	-11.4833
▁arrange	-11.4835
▁drag	-11.4837
▁permits	-11.4839
▁painter	-11.4839
▁Trump	-11.484
▁imagination	-11.4842
▁dealt	-11.4848
▁Athletic	-11.4849
▁Credit	-11.4854
▁Nathan	-11.4854
▁Review	-11.4856
investing	-11.4861
▁texture	-11.4861
▁gentle	-11.4863
iel	-11.4866
▁bump	-11.4866
Americans	-11.4866
▁chaos	-11.4866
▁wireless	-11.4868
▁spoken	-11.4869
▁Corn	-11.487
▁makeup	-11.4871
▁cabin	-11.4871
dor	-11.4871
▁sandwich	-11.4874
world	-11.4874
aki	-11.4874
▁Ballet	-11.4876
▁Jackie	-11.4877
▁flower	-11.4877
▁accent	-11.4879
▁jewelry	-11.4879
▁Goldman	-11.4884
▁anxiety	-11.4887
▁Moreover	-11.489
rum	-11.4892
▁Tor	-11.4892
▁indictment	-11.4892
TER	-11.4895
▁skeptical	-11.4899
▁stages	-11.4903
▁spaces	-11.4904
but	-11.4904
▁Political	-11.4904
wi	-11.4907
▁130	-11.4908
▁discourage	-11.491
▁openly	-11.4911
▁Direct	-11.4914
aver	-11.4915
eur	-11.4919
▁alter	-11.4919
▁Bru	-11.4925
▁everyday	-11.4927
▁Ice	-11.4927
▁fool	-11.4928
▁stuffed	-11.4929
▁meters	-11.4931
▁Cur	-11.4931
▁Guide	-11.4932
▁Return	-11.4932
▁adjustment	-11.4934
▁Officer	-11.4935
▁cuisine	-11.4935
▁hammer	-11.4936
▁mold	-11.4937
▁supplement	-11.4939
▁rebuild	-11.494
▁Stage	-11.4945
▁claiming	-11.4945
▁occasion	-11.4948
▁decid	-11.4949
▁bottles	-11.4953
▁landlord	-11.4954
▁statue	-11.4954
▁ugly	-11.4956
ien	-11.4956
itz	-11.496
▁Ly	-11.4964
ali	-11.4967
▁Obvious	-11.4967
▁resemble	-11.4969
▁Katy	-11.4969
▁Castle	-11.4969
▁Pope	-11.4972
▁advise	-11.4973
▁Monica	-11.4977
▁operator	-11.4978
▁triumph	-11.4979
▁Knicks	-11.4979
▁Helen	-11.498
▁Jake	-11.4982
▁Windows	-11.4989
▁Myers	-11.4989
▁divorced	-11.4989
▁twist	-11.499
INE	-11.4993
mark	-11.4997
growing	-11.4997
▁clerk	-11.4998
▁designated	-11.5001
bus	-11.5001
▁Met	-11.5003
lying	-11.5004
▁thumb	-11.5004
▁MO	-11.5005
▁Sh	-11.501
▁Entertainment	-11.5011
▁Gay	-11.5016
▁Ash	-11.5016
▁Pearl	-11.5016
▁sausage	-11.5017
▁1965	-11.5021
▁artificial	-11.5023
hood	-11.5024
▁barr	-11.5024
▁boxing	-11.5026
-24	-11.5028
▁Battle	-11.5029
▁Taiwan	-11.503
▁romance	-11.503
▁coastal	-11.5036
▁cookies	-11.504
echnologies	-11.5041
▁Minneapolis	-11.5043
AP	-11.5045
vent	-11.5054
▁freeze	-11.5055
▁distant	-11.5055
▁highlights	-11.5057
rk	-11.5057
▁reserves	-11.5059
▁universe	-11.5062
▁AJC	-11.5062
▁illegally	-11.5062
▁crude	-11.5063
▁Moss	-11.5065
▁$40	-11.5067
▁efficiency	-11.5068
▁Orioles	-11.5068
▁Vernon	-11.5068
▁performers	-11.507
▁backing	-11.5072
▁rhetoric	-11.5072
ILL	-11.5074
▁Floyd	-11.5074
▁origin	-11.5079
▁surgeon	-11.5082
▁Cash	-11.5083
▁reminded	-11.5085
▁Hy	-11.5086
▁Harbor	-11.5087
▁careers	-11.509
▁Earl	-11.5091
▁bears	-11.5092
▁conflicts	-11.5093
▁Mills	-11.5093
▁Ravens	-11.5094
▁reliable	-11.5095
▁Bol	-11.5096
▁amateur	-11.51
▁naturally	-11.5103
▁reopen	-11.5107
ories	-11.5108
▁slump	-11.511
dell	-11.5112
3,000	-11.5113
▁jacket	-11.5115
▁Easter	-11.5118
▁bronze	-11.5119
▁secular	-11.5119
▁shoe	-11.5124
▁Betty	-11.5126
▁pose	-11.5126
▁explosive	-11.5127
▁Trans	-11.5128
▁Tree	-11.5132
▁Off	-11.5132
▁Hawks	-11.5134
▁Rosen	-11.5134
▁Ce	-11.5134
▁resignation	-11.5139
▁Swiss	-11.514
equipped	-11.514
▁cautious	-11.5151
▁Hernandez	-11.5152
tax	-11.5155
▁dealer	-11.5155
▁invitation	-11.5158
▁clubhouse	-11.5161
▁Emory	-11.5164
▁$11	-11.5167
▁pressing	-11.5168
▁probation	-11.517
▁Wy	-11.5171
▁LA	-11.5171
▁roast	-11.5175
▁planted	-11.5179
▁IRS	-11.518
▁Beth	-11.5182
▁Montreal	-11.5183
▁Cinemark	-11.5183
▁1-1	-11.5185
▁Bull	-11.5187
▁conspiracy	-11.519
▁Tea	-11.5193
▁taxpayer	-11.5193
shot	-11.5195
▁delicious	-11.5196
▁valid	-11.5205
AND	-11.5209
▁Holland	-11.521
▁uncertainty	-11.5211
▁compos	-11.5212
La	-11.5214
▁Ye	-11.5218
▁pump	-11.5218
▁Ve	-11.5219
▁declare	-11.5221
TION	-11.5221
▁Poor	-11.5222
▁harassment	-11.5222
▁11:30	-11.5226
▁Ban	-11.5227
▁stomach	-11.5228
▁140	-11.5233
sburg	-11.5233
▁mound	-11.5235
▁submit	-11.5235
▁inch	-11.5236
▁slash	-11.5237
▁Berry	-11.5237
▁Mag	-11.5238
▁advised	-11.5239
▁scar	-11.5241
een	-11.5242
▁lighting	-11.5243
▁$200	-11.5246
▁Nation	-11.5247
ira	-11.5248
▁COUNTY	-11.5248
▁Stevens	-11.5248
bank	-11.5249
ille	-11.5251
▁educated	-11.5255
hold	-11.5258
▁parallel	-11.5261
▁expertise	-11.5261
▁Cooking	-11.5263
▁Kate	-11.5265
▁holidays	-11.5265
▁honored	-11.5267
▁Hor	-11.5273
▁CH	-11.5273
cl	-11.5275
▁NFC	-11.5276
graph	-11.5277
▁lenders	-11.528
▁float	-11.528
▁Ellen	-11.5285
ition	-11.5286
▁interpret	-11.5287
etta	-11.5288
▁pour	-11.5288
oni	-11.5291
etti	-11.5292
▁calendar	-11.5293
▁narrative	-11.5294
▁Mul	-11.5295
▁SE	-11.5296
vel	-11.5296
▁announce	-11.5299
▁deserves	-11.5301
kar	-11.5302
▁0-0	-11.5303
▁helpful	-11.5305
▁Against	-11.5307
▁widow	-11.5313
▁bacon	-11.5313
yne	-11.5313
▁speculation	-11.5313
▁habitat	-11.5313
▁enable	-11.5314
▁281-	-11.5316
▁separated	-11.5316
▁Ol	-11.5317
Brien	-11.5318
▁differ	-11.5319
▁inherit	-11.5319
▁micro	-11.5319
▁Katrina	-11.5319
▁rhythm	-11.532
▁opposing	-11.5326
▁bullpen	-11.5326
▁Independent	-11.5328
▁jeans	-11.5328
▁strategist	-11.5332
▁Medicine	-11.5339
▁Wagner	-11.5339
▁flip	-11.5341
▁leaf	-11.5343
▁Jeremy	-11.5352
▁Sanchez	-11.5352
▁Chargers	-11.5352
▁undergo	-11.5357
▁Gardner	-11.5359
▁devastating	-11.5364
▁Patterson	-11.5365
▁hybrid	-11.5365
▁crushed	-11.5366
▁suburb	-11.5366
ax	-11.5367
▁nerve	-11.5368
▁Data	-11.5369
▁ta	-11.5371
▁enem	-11.5371
▁fumble	-11.5372
▁crust	-11.5372
ama	-11.5375
▁examples	-11.5376
▁Burke	-11.5376
▁basket	-11.5378
▁Ski	-11.5381
▁Iron	-11.5382
▁seiz	-11.5387
cle	-11.5388
▁finely	-11.5391
▁quest	-11.5392
▁Patricia	-11.5392
▁measured	-11.5394
▁agriculture	-11.5398
bie	-11.5399
▁asset	-11.5401
▁curious	-11.5405
▁1-800-	-11.5405
▁$18	-11.5405
▁cousin	-11.5407
▁assured	-11.541
ace	-11.5414
▁productive	-11.5415
rag	-11.5426
▁gardens	-11.5428
▁Donna	-11.5428
▁Gor	-11.543
▁grows	-11.5431
▁lime	-11.5434
▁click	-11.5438
▁trainer	-11.544
▁email	-11.544
▁Horn	-11.5443
▁stole	-11.5448
▁crying	-11.5448
▁2015	-11.5449
tie	-11.545
▁Gro	-11.5451
▁possibilities	-11.5451
▁addict	-11.5451
▁Wait	-11.5453
▁declining	-11.5457
▁evaluation	-11.5459
▁smiling	-11.5471
▁pinch	-11.5471
▁justify	-11.5471
▁ballots	-11.5475
holders	-11.5476
▁climbing	-11.5477
▁motivated	-11.5481
▁nurses	-11.5481
▁Carson	-11.5481
▁glasses	-11.5486
enrolled	-11.5488
▁heroes	-11.5489
▁structures	-11.5497
▁arriving	-11.5497
▁consumption	-11.5497
▁wash	-11.5502
▁specialize	-11.5502
▁shoulders	-11.5503
▁puzzle	-11.5504
▁risen	-11.5504
▁bullet	-11.5505
slipped	-11.5508
▁assembly	-11.551
▁rallie	-11.5511
▁accompany	-11.5517
▁servings	-11.5521
ATION	-11.5526
OT	-11.5527
▁scary	-11.553
▁electrical	-11.553
▁Television	-11.5531
▁Elliott	-11.5532
▁Mis	-11.5534
▁swim	-11.5537
▁Ferguson	-11.5537
▁listing	-11.5537
▁clinical	-11.5539
▁Change	-11.5541
standing	-11.5541
▁glimpse	-11.5551
▁Dor	-11.5555
▁patience	-11.5557
▁rubber	-11.5558
▁$14	-11.5559
▁exports	-11.556
▁symptoms	-11.5563
founder	-11.5563
▁punt	-11.5565
▁Sta	-11.5573
3-3	-11.5576
▁Movie	-11.5578
▁Investment	-11.5578
▁progressive	-11.558
late	-11.558
▁Sgt	-11.5583
▁Tuesdays	-11.5584
▁acquire	-11.5584
core	-11.5587
▁commissioners	-11.5588
ELL	-11.5592
ify	-11.5594
▁Fifth	-11.5597
▁Revenue	-11.5597
▁submitted	-11.5598
gov	-11.5598
▁Diane	-11.5599
▁signals	-11.56
area	-11.56
▁Winner	-11.5601
▁Gardens	-11.5604
▁relate	-11.5605
▁spy	-11.5606
▁branches	-11.5606
▁Harold	-11.5611
uinn	-11.5611
▁Jamie	-11.5613
▁conductor	-11.5614
rey	-11.5615
▁directions	-11.5617
▁inform	-11.5618
▁exotic	-11.5618
▁therapist	-11.5618
▁6-6	-11.562
▁grim	-11.5624
▁empire	-11.5624
▁mandatory	-11.5624
▁Mario	-11.5626
▁barrel	-11.563
▁Savannah	-11.5631
▁yell	-11.5631
▁regions	-11.5632
food	-11.5634
▁interpretation	-11.5639
▁uncomfortable	-11.5639
▁Maj	-11.564
hawk	-11.5642
▁beds	-11.5644
Mo	-11.5645
▁Sweden	-11.5645
▁dash	-11.5648
▁troubles	-11.5648
▁Kings	-11.565
▁Les	-11.5651
eff	-11.5652
peeled	-11.5652
▁Reno	-11.5655
▁promotion	-11.5657
▁Brook	-11.5658
▁$16	-11.5662
▁Highland	-11.5663
▁slate	-11.5664
▁revival	-11.5665
▁Coke	-11.5667
▁Gregory	-11.5668
▁510	-11.5671
▁confused	-11.5671
blew	-11.5674
▁spur	-11.5674
▁visa	-11.5675
▁successor	-11.5675
▁instruction	-11.5676
▁retir	-11.5676
stra	-11.5677
▁champions	-11.5679
▁genre	-11.568
▁Sheriff	-11.5681
▁Computer	-11.5685
▁deposit	-11.5687
▁Full	-11.5687
▁distinct	-11.5688
▁acid	-11.5689
▁Hayes	-11.569
▁homicide	-11.5692
Va	-11.5692
ENT	-11.5695
bat	-11.5696
▁Route	-11.5698
▁Tracy	-11.5699
hart	-11.57
▁ballet	-11.57
▁Give	-11.5705
▁anonymous	-11.5705
▁Civic	-11.5706
workers	-11.5708
▁organize	-11.5714
▁Circle	-11.5719
▁default	-11.5719
▁demonstrations	-11.5721
▁enforce	-11.5721
ami	-11.5723
▁pressed	-11.5726
▁Private	-11.5726
▁Willis	-11.5729
▁opt	-11.5732
uri	-11.5733
▁vessel	-11.5733
▁rocks	-11.5735
▁rings	-11.5739
▁Walk	-11.5739
▁Systems	-11.5742
Co	-11.5744
▁Universal	-11.5746
▁intelligent	-11.5746
▁seafood	-11.5747
▁testify	-11.5747
▁printed	-11.5751
▁Dun	-11.5751
▁alike	-11.5752
▁Northwestern	-11.5753
▁entitl	-11.5754
du	-11.5759
▁clinics	-11.5759
▁Heritage	-11.576
▁200,000	-11.5763
ric	-11.5765
▁Janet	-11.5767
▁fortunate	-11.5767
▁strategies	-11.5767
▁discovery	-11.5771
▁Morning	-11.5773
▁Dinner	-11.5774
ification	-11.5774
▁resource	-11.5776
▁concentration	-11.5776
dom	-11.5779
UL	-11.5782
hl	-11.5784
▁hardest	-11.5786
▁DB	-11.5788
▁confrontation	-11.5791
1/2	-11.5791
▁se	-11.5793
▁confusion	-11.5794
▁roasted	-11.5797
▁farther	-11.5798
▁breed	-11.5799
▁treaty	-11.5799
▁Fur	-11.5803
▁Jam	-11.5804
base	-11.5807
▁lucrativ	-11.5808
▁Jenkins	-11.5808
▁DO	-11.5809
▁strongest	-11.5811
▁forests	-11.5814
▁Wo	-11.5817
▁**28;	-11.5821
▁wars	-11.5822
▁rebuilding	-11.5823
▁Often	-11.5824
▁3:30	-11.5825
▁Nine	-11.5825
▁ethical	-11.5827
▁sexually	-11.5829
▁CA	-11.5835
▁referendum	-11.5835
▁enhance	-11.5839
▁terrific	-11.5843
xi	-11.5846
▁Luke	-11.5846
▁Victor	-11.5847
▁Syracuse	-11.5849
▁innovative	-11.5849
ache	-11.585
▁cop	-11.5851
▁ears	-11.5852
▁Rad	-11.5853
▁6-8	-11.5856
▁Basketball	-11.5856
▁trout	-11.5856
park	-11.5857
In	-11.5861
▁dose	-11.5862
rr	-11.5862
▁porch	-11.5863
▁hub	-11.5865
▁lending	-11.5866
▁Argentina	-11.587
▁Snyder	-11.587
▁stance	-11.587
▁introduction	-11.587
▁dividend	-11.587
▁dean	-11.5871
▁charging	-11.5875
▁pretend	-11.5876
▁Kathy	-11.5877
▁Downtown	-11.5878
▁Forum	-11.5878
▁dependent	-11.5878
▁hearts	-11.5881
▁Sound	-11.5883
erson	-11.5884
▁shame	-11.5884
PI	-11.5886
ida	-11.5889
▁Mir	-11.5895
▁Action	-11.5895
▁Around	-11.5895
▁pg	-11.5897
▁radar	-11.5897
▁Cancer	-11.5898
▁hail	-11.5899
Mar	-11.59
▁friendship	-11.59
▁bones	-11.5901
▁Votes	-11.5901
▁shipping	-11.5902
▁trap	-11.5902
dan	-11.5903
▁9/11	-11.5904
▁shelve	-11.5905
▁closet	-11.5905
▁arrangement	-11.5905
▁Son	-11.5907
▁spotted	-11.5907
▁authors	-11.5907
▁Jen	-11.5909
▁focuses	-11.5912
▁OL	-11.5914
550	-11.5916
▁surveillance	-11.5918
▁resign	-11.592
▁delegate	-11.5925
▁coordinat	-11.5926
▁Nicole	-11.593
▁Hopkins	-11.5932
ison	-11.5933
▁priest	-11.5933
rang	-11.5935
▁sin	-11.5937
▁exceed	-11.5937
even	-11.5941
1-0	-11.5944
oz	-11.5945
▁commanders	-11.5946
▁academy	-11.5946
▁waters	-11.5948
▁AFC	-11.5948
▁rage	-11.5948
-75	-11.5949
▁Sol	-11.595
▁ACC	-11.5952
▁1920	-11.5953
▁bail	-11.5953
▁toast	-11.5955
▁cleanup	-11.5955
TE	-11.5955
▁Years	-11.5955
▁marry	-11.5957
▁Lance	-11.5959
▁pregnancy	-11.596
▁automobile	-11.596
▁poorly	-11.5961
power	-11.5963
eyed	-11.5963
bro	-11.5966
▁Centennial	-11.5967
▁Cheney	-11.5968
▁responsibilit	-11.5968
▁upscale	-11.5971
▁Sony	-11.5971
▁1963	-11.5973
▁Looking	-11.5973
▁15,000	-11.5977
addressed	-11.5979
▁whisk	-11.5981
▁woods	-11.5982
cin	-11.5983
▁outfielder	-11.5986
▁companion	-11.5988
▁Thus	-11.5988
▁balloon	-11.5989
▁jumping	-11.599
▁warehouse	-11.599
▁Working	-11.5991
ean	-11.5992
▁Andrews	-11.5994
▁Albany	-11.5995
▁bolster	-11.5995
▁Late	-11.5995
▁Depot	-11.5996
▁user	-11.5997
▁plaintiff	-11.6002
▁beloved	-11.6002
▁Word	-11.6003
▁Nature	-11.6003
▁agreements	-11.6004
▁Region	-11.6005
▁studios	-11.6005
▁seize	-11.6006
▁risky	-11.6007
▁900	-11.6009
850	-11.6013
▁priced	-11.6014
▁Mas	-11.6014
▁Future	-11.6016
▁helmet	-11.6017
▁median	-11.6019
▁wider	-11.6021
▁certificate	-11.6023
▁1966	-11.6025
▁Sara	-11.6025
ueens	-11.6026
bre	-11.6029
▁190	-11.6029
▁Cedar	-11.603
▁Dell	-11.603
feld	-11.6032
▁distributed	-11.6035
▁bare	-11.6036
▁Timoth	-11.6037
▁disturbing	-11.6037
ration	-11.6038
▁incredibl	-11.6038
ban	-11.6041
llen	-11.6041
eal	-11.6042
▁fitness	-11.6042
▁disputes	-11.6045
▁Pen	-11.6046
▁beam	-11.6054
▁republic	-11.6055
SS	-11.6055
ore	-11.6056
▁Proposition	-11.6058
▁intersection	-11.6058
▁topics	-11.606
▁Julia	-11.6061
▁quarterbacks	-11.6063
uan	-11.6065
▁Kosovo	-11.6065
▁exploration	-11.6065
OP	-11.6066
▁Lan	-11.6067
▁mansion	-11.6067
own	-11.6068
▁Pla	-11.607
▁Clara	-11.6071
▁Mix	-11.6071
▁optimis	-11.6071
▁Summit	-11.6072
▁saute	-11.6072
▁Woodlands	-11.6073
▁marine	-11.6075
▁Case	-11.6076
lton	-11.6078
▁screaming	-11.608
▁possess	-11.6083
▁determination	-11.6085
▁disclosed	-11.6085
▁2-1	-11.6087
Neal	-11.6088
▁303	-11.6092
▁OB	-11.6095
▁premier	-11.61
▁capabilit	-11.6101
▁alternatives	-11.6102
▁$500	-11.6102
och	-11.6102
block	-11.6103
▁Bosnian	-11.6105
▁illustrate	-11.6105
▁Combine	-11.6107
▁backyard	-11.6109
▁cow	-11.6109
▁feeding	-11.6111
▁Thanks	-11.6112
kes	-11.6114
70,000	-11.6114
paid	-11.6114
▁Vermont	-11.6114
▁decorated	-11.6115
▁BO	-11.6123
▁brands	-11.6124
▁TR	-11.6125
:05	-11.6127
▁convenience	-11.6128
▁climbed	-11.6135
▁Banks	-11.6135
▁circulation	-11.6135
▁Hampton	-11.6135
▁loyalty	-11.6136
hou	-11.6136
▁transformation	-11.6138
▁propose	-11.614
▁ministry	-11.6142
▁Kor	-11.6143
▁historically	-11.6143
▁spell	-11.6144
▁grace	-11.6145
▁transactions	-11.6146
▁Awards	-11.6148
▁Song	-11.6152
▁rep	-11.6156
▁dancers	-11.6157
▁AB	-11.6158
▁Outside	-11.6159
▁HBO	-11.6159
▁sustain	-11.6162
▁memorable	-11.6164
author	-11.6164
posed	-11.6165
▁1-2	-11.6167
erman	-11.617
▁dawn	-11.6172
▁elect	-11.6173
▁tasting	-11.6176
service	-11.6176
▁questioning	-11.6178
▁Beverly	-11.6178
▁Sho	-11.618
step	-11.6182
▁BB	-11.6183
▁Employees	-11.6183
ene	-11.6184
▁guidance	-11.6185
▁Raymond	-11.6185
▁6-7	-11.6186
▁VA	-11.6189
▁midst	-11.6192
forgotten	-11.6192
▁Similar	-11.6192
rav	-11.6192
▁ego	-11.6195
▁emotion	-11.6196
family	-11.6199
▁Arafat	-11.6199
▁wheelchair	-11.6199
▁oak	-11.6201
▁intention	-11.6202
▁certified	-11.6205
▁heaven	-11.6207
▁cargo	-11.6208
▁160	-11.6209
woman	-11.6212
rine	-11.6212
▁Bronx	-11.6214
oe	-11.6215
▁suggestion	-11.6217
▁Elway	-11.6218
▁exceptional	-11.6218
▁bake	-11.6219
▁Perot	-11.6219
▁wears	-11.6219
sol	-11.6219
▁enthusiastic	-11.6222
▁Spencer	-11.6222
vert	-11.6222
lot	-11.623
▁Kre	-11.6233
vit	-11.6236
rise	-11.6239
▁mortgages	-11.6239
▁thoroughly	-11.624
rant	-11.6242
▁Comp	-11.6242
▁Phillies	-11.6242
▁Ci	-11.6245
▁advertise	-11.6245
▁exemption	-11.6246
▁steer	-11.6247
▁drunk	-11.6247
▁alien	-11.6248
▁Native	-11.6249
▁vacant	-11.6249
▁stint	-11.625
gli	-11.6252
▁sustained	-11.6253
▁favorites	-11.6255
▁Behind	-11.6257
hn	-11.6258
liter	-11.6258
▁Shell	-11.6261
▁refugee	-11.6262
▁labels	-11.6263
▁Episcopal	-11.6264
▁administer	-11.6264
▁peppers	-11.6265
▁lit	-11.6265
▁pond	-11.6265
▁Mile	-11.6266
titled	-11.6267
▁Yugoslavia	-11.6267
▁entertaining	-11.627
▁Lauren	-11.6272
▁processor	-11.6273
▁Thursdays	-11.6274
▁Kenya	-11.6277
▁ritual	-11.6278
▁suggestions	-11.628
▁outlook	-11.6281
▁semifinals	-11.6282
▁nest	-11.6283
▁intensity	-11.6284
▁seal	-11.6284
▁lottery	-11.6285
▁mock	-11.6287
▁uncover	-11.6292
▁Lind	-11.6295
▁SA	-11.6295
ees	-11.6298
▁congregation	-11.63
▁ordinance	-11.63
▁picnic	-11.63
▁Already	-11.63
▁heated	-11.63
▁mustard	-11.6302
▁Step	-11.6306
awa	-11.6307
▁Bend	-11.6307
▁circles	-11.6308
▁venue	-11.631
▁Princeton	-11.631
▁scholars	-11.6311
▁Chen	-11.6312
▁Ros	-11.6314
unk	-11.6314
▁Derek	-11.6314
only	-11.6316
MENT	-11.6317
▁Resident	-11.6321
▁homer	-11.6321
▁receivers	-11.6321
▁0-1	-11.6325
▁youths	-11.6326
▁cartoon	-11.6328
▁pale	-11.6328
▁Fat	-11.6328
▁Roe	-11.6335
▁Haiti	-11.6336
▁euro	-11.6337
▁tracking	-11.6339
▁fires	-11.6341
▁panic	-11.6343
▁Interior	-11.6343
▁Simmons	-11.6343
▁newest	-11.6344
▁Lutheran	-11.6345
▁handsome	-11.6346
▁boots	-11.6348
▁loving	-11.6349
▁flexibility	-11.635
▁Contact	-11.635
▁enlist	-11.6351
▁Pos	-11.6352
▁Mondays	-11.6356
▁Homes	-11.6357
gent	-11.6361
avi	-11.6366
8-0	-11.6367
▁Cho	-11.6371
cker	-11.6372
▁Century	-11.6372
▁Dolphins	-11.6372
▁plum	-11.6373
▁bomber	-11.6373
▁museums	-11.6378
▁Lower	-11.638
▁Tro	-11.6383
▁interceptions	-11.6384
▁composer	-11.6384
▁Marie	-11.6387
▁trailer	-11.6387
▁Freeman	-11.6388
▁Sat	-11.639
tar	-11.6393
▁Thai	-11.6394
wer	-11.6394
▁fancy	-11.6395
▁Operation	-11.6396
▁Again	-11.64
▁import	-11.6405
▁vintage	-11.6408
▁Lay	-11.6409
get	-11.6411
▁Glass	-11.6411
▁Carpenter	-11.6416
▁Sterling	-11.6416
▁convey	-11.6416
▁Switzerland	-11.6416
▁Common	-11.6416
▁1/2-	-11.6417
▁fails	-11.6419
borough	-11.642
▁provider	-11.6421
ika	-11.6421
▁peel	-11.6423
▁frank	-11.6423
▁Katie	-11.6424
▁hedge	-11.6426
type	-11.6428
▁objective	-11.643
▁Cape	-11.643
▁Mandela	-11.643
▁notorious	-11.643
▁interactive	-11.6431
▁permitted	-11.6432
▁liability	-11.6433
▁listened	-11.6438
▁styles	-11.6443
▁Parliament	-11.6445
▁Ultimate	-11.6445
▁Tower	-11.6446
▁anticipated	-11.6448
▁1:30	-11.6451
DS	-11.6451
interest	-11.6452
▁Admission	-11.6452
▁ghost	-11.6452
▁Something	-11.6452
los	-11.6452
▁scattered	-11.6453
▁couch	-11.6454
lands	-11.6455
:20	-11.6455
▁junk	-11.6455
▁Nazi	-11.6457
▁Master	-11.6457
-28	-11.6459
▁Number	-11.6459
▁scope	-11.6459
char	-11.6461
▁sail	-11.6463
▁casting	-11.6464
▁3.5	-11.6465
▁Mus	-11.6468
Neill	-11.6469
▁Burton	-11.6469
▁$35	-11.647
▁conducting	-11.647
▁Starr	-11.6472
▁foreigner	-11.6472
:10	-11.6472
▁corrupt	-11.6473
▁relevant	-11.6474
▁Merrill	-11.6475
▁acceptance	-11.6476
▁takeover	-11.6477
▁educators	-11.6479
ION	-11.6481
▁steadily	-11.6481
▁precious	-11.6482
▁displays	-11.6482
mond	-11.6488
▁Actual	-11.649
▁shortstop	-11.649
▁Monte	-11.6492
▁stack	-11.6494
▁cab	-11.6495
▁optional	-11.6497
observed	-11.6497
▁laughs	-11.6503
▁Recreation	-11.6504
▁cure	-11.6506
▁sum	-11.6509
▁motivation	-11.6509
▁Speak	-11.651
BA	-11.6511
▁Ark	-11.6515
▁SAN	-11.6516
▁chains	-11.6518
▁Companies	-11.6518
▁lap	-11.6519
EP	-11.6519
▁screens	-11.652
tress	-11.6521
NE	-11.6523
▁catching	-11.6526
▁Judy	-11.6533
▁Rain	-11.6534
▁Ph	-11.6535
▁Mari	-11.6538
▁globe	-11.654
▁shallow	-11.6541
▁Charleston	-11.6541
▁Deep	-11.6545
▁recreation	-11.6546
▁avoided	-11.6547
▁patch	-11.6547
▁temporari	-11.6548
▁Help	-11.6551
▁Chang	-11.6555
LAND	-11.6557
▁downturn	-11.6558
▁taxi	-11.6558
▁minus	-11.656
TI	-11.6561
EA	-11.6561
▁Sand	-11.6562
▁necessit	-11.6562
▁1962	-11.6565
▁Div	-11.6565
EM	-11.6566
▁undermine	-11.6567
▁genius	-11.657
▁Anaheim	-11.657
▁tee	-11.6572
tti	-11.6574
▁restrict	-11.6578
▁riders	-11.658
▁exile	-11.658
▁DT	-11.6581
▁Ivan	-11.6581
boundarie	-11.6583
▁Reggie	-11.6585
▁depress	-11.6588
▁trans	-11.6592
DATE	-11.6594
▁Colombia	-11.6595
▁Reservations	-11.6598
▁rumors	-11.6598
▁assumption	-11.6599
▁horrible	-11.6599
▁Cruise	-11.66
▁singled	-11.6606
▁Military	-11.6607
▁Rachel	-11.6608
vowed	-11.6609
cer	-11.661
▁licenses	-11.6615
dding	-11.6619
▁Circuit	-11.6622
▁TWO	-11.6622
▁grateful	-11.6622
▁Chu	-11.6624
▁favors	-11.6624
▁addiction	-11.6625
▁lands	-11.6627
▁Mae	-11.6627
▁tenants	-11.6631
▁rein	-11.6633
▁blessing	-11.6633
▁matchup	-11.6635
▁arrangements	-11.6636
▁pumpkin	-11.6638
kh	-11.664
▁info	-11.6641
▁baked	-11.6641
word	-11.6641
▁fold	-11.6643
▁Leslie	-11.6644
▁Better	-11.6648
▁passionate	-11.6651
▁sentences	-11.6654
▁Comment	-11.6654
▁desired	-11.666
matic	-11.6662
▁Hoffman	-11.6664
▁Making	-11.6665
▁Chavez	-11.6666
▁detention	-11.6666
▁harbor	-11.6666
▁cellphone	-11.6671
▁Cle	-11.6671
▁inspection	-11.6672
▁observe	-11.6672
▁Sue	-11.6672
▁marathon	-11.6674
▁educate	-11.6675
respected	-11.6678
:15	-11.668
▁Pl	-11.6681
▁proclaim	-11.6685
▁corporation	-11.6686
▁Partners	-11.6689
▁shifting	-11.6689
▁mega	-11.6689
▁Frederick	-11.6689
▁borrower	-11.6691
▁tide	-11.6693
▁Dunn	-11.6693
▁Clean	-11.6694
▁musician	-11.6695
▁anxious	-11.6696
▁explod	-11.67
▁caring	-11.6703
▁Fo	-11.6704
bird	-11.6704
dine	-11.6707
▁wings	-11.6709
cro	-11.6709
▁lone	-11.6709
▁Crawford	-11.6711
▁wrist	-11.6713
▁Robertson	-11.6714
▁Fer	-11.6715
aro	-11.6717
▁Shawn	-11.6719
▁hostile	-11.672
▁adjacent	-11.6726
▁shield	-11.6726
▁Historic	-11.6729
▁indoor	-11.6729
▁mat	-11.6729
▁dubb	-11.673
▁scare	-11.673
▁TA	-11.6731
mat	-11.6732
▁figur	-11.6733
▁merchandise	-11.6734
▁animated	-11.6734
▁minimal	-11.6734
oh	-11.674
▁technician	-11.6741
▁Further	-11.6742
▁tapes	-11.6746
302	-11.6748
▁Galveston	-11.6749
▁Graphic	-11.6749
▁photography	-11.675
▁Bun	-11.6751
▁graphic	-11.6751
▁faction	-11.6752
aid	-11.6755
▁trim	-11.6757
▁19-	-11.6757
generation	-11.6757
Re	-11.6758
bun	-11.6762
▁Buchanan	-11.6764
▁frustrating	-11.6764
▁ballpark	-11.6765
▁shaped	-11.6766
▁catalog	-11.6769
▁Reform	-11.6771
▁parsley	-11.6772
▁guided	-11.6772
▁wholesale	-11.6772
▁honors	-11.6773
▁assert	-11.6775
▁Want	-11.6777
▁Daley	-11.6779
▁Nike	-11.6779
▁Len	-11.6781
▁Der	-11.6781
pot	-11.6784
▁25,000	-11.6784
▁Resort	-11.6787
▁PBS	-11.6787
▁Hay	-11.6791
▁sang	-11.6792
▁skirt	-11.6793
▁runway	-11.6794
ann	-11.6795
▁Bake	-11.6795
CC	-11.6797
▁Colin	-11.6797
▁Emily	-11.6798
▁Augusta	-11.6799
▁dock	-11.6802
▁diabetes	-11.6802
CO	-11.6803
▁$13	-11.6803
ern	-11.6806
▁sheep	-11.6807
▁6,000	-11.6809
▁soap	-11.6809
▁culinary	-11.6809
rus	-11.6811
▁Store	-11.6813
vil	-11.6815
shirts	-11.6816
▁contrar	-11.6817
▁foreclosure	-11.6817
▁Horse	-11.6817
▁tissue	-11.6818
▁drops	-11.682
sponsor	-11.6822
ela	-11.6823
▁mode	-11.6823
▁CCR	-11.6824
▁Violence	-11.6825
▁sequence	-11.6825
take	-11.6829
lier	-11.683
OC	-11.6831
lf	-11.6832
lit	-11.6833
wil	-11.6833
UT	-11.6835
▁4:30	-11.6835
wo	-11.6836
▁Monroe	-11.6837
▁download	-11.6839
▁Fast	-11.6839
▁planners	-11.6839
▁litigation	-11.684
▁placing	-11.684
▁LSU	-11.684
▁lo	-11.6843
▁meaningful	-11.6846
▁traditions	-11.6848
▁attendant	-11.685
▁tossed	-11.685
▁bridges	-11.6851
1,000	-11.6851
▁goat	-11.6854
▁cinnamon	-11.6855
▁suspicious	-11.6855
read	-11.6859
ching	-11.686
▁Muhammad	-11.6863
▁mosque	-11.6863
▁chemistry	-11.6863
▁meantime	-11.6863
▁sufficient	-11.6863
▁excessive	-11.6863
▁incumbent	-11.6864
ARD	-11.6865
▁500,000	-11.6865
▁Reds	-11.6868
▁Eugene	-11.687
▁hiding	-11.6871
▁engines	-11.6871
aba	-11.6875
▁prosecute	-11.6878
▁Gilbert	-11.6878
deemed	-11.6879
IM	-11.6879
▁temperatures	-11.6879
pack	-11.688
building	-11.6882
▁Alfred	-11.6885
▁offerings	-11.6886
▁GA	-11.6886
▁flourish	-11.6887
▁Springfield	-11.6887
▁scorer	-11.6888
▁pat	-11.6889
▁bloom	-11.6893
▁mysterious	-11.6893
▁syrup	-11.6893
▁whisper	-11.6893
▁cowboy	-11.6893
shaped	-11.6894
▁attraction	-11.6902
▁lobbyists	-11.6904
scu	-11.6904
▁fascinating	-11.6907
▁jurisdiction	-11.6908
inning	-11.6909
▁LE	-11.691
▁Ramsey	-11.691
▁grasp	-11.6911
▁accountant	-11.6913
▁button	-11.6914
▁fueled	-11.6914
▁Pulitzer	-11.6916
▁northwest	-11.6917
▁Pri	-11.692
AG	-11.6926
▁projection	-11.6927
▁Libya	-11.6928
▁cloves	-11.693
▁Cultural	-11.6931
▁Potter	-11.6933
▁bt	-11.6935
▁farming	-11.6937
▁170	-11.6938
▁Ven	-11.6939
▁architectural	-11.6939
grandparents	-11.6939
five	-11.6939
mmer	-11.6944
▁budgets	-11.6945
▁175	-11.6945
avier	-11.6946
▁Bethesda	-11.6947
▁Hours	-11.6947
▁racist	-11.6947
▁institute	-11.6948
Saturdays	-11.6949
hander	-11.695
▁distinction	-11.6951
▁affirmative	-11.6955
▁Lau	-11.6955
▁offset	-11.6956
▁Motors	-11.6958
▁Kurt	-11.696
▁Intel	-11.6961
▁105	-11.6964
▁pres	-11.6965
risk	-11.697
▁unsuccessful	-11.697
▁surplus	-11.697
▁recipients	-11.697
▁Pitt	-11.6976
▁Across	-11.6976
▁Vienna	-11.6978
▁Shannon	-11.6978
▁movements	-11.698
▁ingredient	-11.698
▁manages	-11.6982
▁Hank	-11.6982
ME	-11.6982
owski	-11.6983
▁champ	-11.6984
une	-11.6985
▁Nicholas	-11.6985
▁1/3	-11.6988
▁diagnos	-11.6989
▁AM	-11.6991
▁cultures	-11.6992
▁gangs	-11.6995
▁Agriculture	-11.7001
▁Industry	-11.7001
hor	-11.7004
▁sedan	-11.701
-23	-11.7013
call	-11.7017
▁instruments	-11.7017
▁Kris	-11.7018
▁workforce	-11.7019
▁erupt	-11.7019
▁sneak	-11.7021
▁Stephani	-11.7023
▁contributor	-11.7024
▁monster	-11.7024
▁soda	-11.7025
SL	-11.7026
rod	-11.7028
▁formation	-11.7032
▁Hilton	-11.7033
▁athletics	-11.7034
UE	-11.7034
▁gon	-11.7035
▁40,000	-11.7036
▁buck	-11.7037
ister	-11.7037
▁Bus	-11.7038
▁surf	-11.7044
nger	-11.7047
▁Pet	-11.7048
▁laughed	-11.7051
▁Newman	-11.7051
▁stimulus	-11.7055
reviewed	-11.7055
▁240	-11.7055
kel	-11.7057
▁Buy	-11.7058
ago	-11.7059
▁Walton	-11.7062
▁Revolution	-11.7062
▁delegation	-11.7063
▁processing	-11.7063
▁vow	-11.7064
lac	-11.7065
▁commute	-11.7066
ux	-11.7066
▁Flight	-11.7066
▁BA	-11.7067
ras	-11.7067
ground	-11.7067
▁cigarette	-11.7069
▁Rafael	-11.707
▁flock	-11.7074
-27	-11.7075
▁AOL	-11.7075
shley	-11.7075
▁Steel	-11.7077
▁treatments	-11.7078
▁DL	-11.7078
▁radiation	-11.7078
▁motorcycle	-11.7078
▁Election	-11.708
wind	-11.7083
▁curve	-11.7084
▁exhibits	-11.7084
▁Tam	-11.7086
▁CUTLINE	-11.7086
▁Workers	-11.7091
▁closure	-11.7094
▁improper	-11.7094
filled	-11.7097
record	-11.7099
▁ramp	-11.71
lam	-11.71
▁Westminster	-11.7102
▁pedestrian	-11.7102
▁comply	-11.7102
▁dense	-11.7104
▁classified	-11.7105
▁Den	-11.7106
▁Large	-11.7107
▁tendenc	-11.7107
priced	-11.7114
country	-11.7117
▁issu	-11.7117
▁MAR	-11.7121
ique	-11.7122
ott	-11.7122
▁workshop	-11.7122
▁editors	-11.7122
▁tattoo	-11.7125
▁Perez	-11.7126
▁sticks	-11.7127
▁breathing	-11.7127
▁Diana	-11.7128
▁Irvine	-11.7129
▁tongue	-11.7133
▁casualties	-11.7133
osa	-11.7136
▁sheer	-11.7138
▁arrives	-11.7138
aff	-11.7141
▁banner	-11.7144
▁saucepan	-11.7149
▁fond	-11.7149
▁clash	-11.715
▁playground	-11.7152
▁intern	-11.7153
▁sake	-11.7154
▁stroll	-11.7155
1.9	-11.7158
▁Andrea	-11.7158
:40	-11.7161
▁21-	-11.7161
▁OT	-11.7163
▁polite	-11.7164
▁WITH	-11.7165
▁jar	-11.7171
▁Championships	-11.7172
gal	-11.7173
▁viewing	-11.7175
▁Stars	-11.7176
▁smoked	-11.7176
▁sack	-11.7178
▁damn	-11.7182
▁Spi	-11.7183
▁220	-11.7183
▁Bee	-11.7186
▁Dana	-11.7188
▁economies	-11.7188
▁Mateo	-11.7188
bidding	-11.7188
bee	-11.7188
▁1,200	-11.7189
show	-11.719
▁engagement	-11.719
▁STAR	-11.7192
eye	-11.7192
▁Shop	-11.7193
cla	-11.7193
powered	-11.7194
ido	-11.7195
▁mixing	-11.7196
▁southwest	-11.7196
ante	-11.7197
▁battery	-11.7197
▁constitution	-11.7204
▁outlets	-11.7205
▁Pur	-11.7206
▁Finance	-11.7208
▁entrepreneurs	-11.721
▁gamble	-11.7211
written	-11.7212
▁completion	-11.7214
▁manual	-11.7216
▁revelation	-11.722
▁characteristic	-11.7221
▁infection	-11.7221
▁preview	-11.7223
▁precinct	-11.7227
▁Twins	-11.7228
▁continent	-11.723
▁sue	-11.7231
evolved	-11.7231
▁dip	-11.7232
▁backward	-11.7235
▁Schwarzenegger	-11.7235
▁applaud	-11.7235
▁Delaware	-11.7235
▁disappointing	-11.7236
LS	-11.7237
▁instructor	-11.7239
▁blunt	-11.7243
▁Works	-11.7243
▁prevention	-11.7244
▁Arvada	-11.7251
▁census	-11.7251
▁inquiry	-11.7251
▁investigator	-11.7251
▁brokerage	-11.7252
lb	-11.7257
▁Performing	-11.7259
▁preliminary	-11.7259
▁palm	-11.7261
eng	-11.7261
▁Germans	-11.7262
▁subscriber	-11.7262
-30	-11.7264
wishes	-11.7266
rri	-11.7266
▁Pay	-11.7266
▁Experts	-11.7267
▁citizenship	-11.7267
▁confidential	-11.7268
AGE	-11.7268
▁Lawrenceville	-11.7268
▁Single	-11.7271
▁cooks	-11.7272
▁Math	-11.7274
▁Clemens	-11.7275
OU	-11.7278
▁barn	-11.7279
▁Animal	-11.7283
▁foil	-11.7283
▁glance	-11.7283
▁random	-11.7285
▁accountable	-11.7286
▁Honor	-11.7288
arrow	-11.7288
▁Miles	-11.729
▁Census	-11.7291
▁lyrics	-11.7294
▁supportive	-11.7297
▁shaking	-11.7299
▁compliance	-11.7299
▁negotiated	-11.73
▁Sherman	-11.7301
▁ripe	-11.7304
▁PER	-11.7306
▁neutral	-11.7309
▁5-9	-11.7311
smith	-11.7313
▁cord	-11.7313
▁stunned	-11.7315
▁motive	-11.7315
▁borrow	-11.7315
▁exploring	-11.7323
▁Kir	-11.7323
witch	-11.7326
▁auditor	-11.7327
▁staged	-11.7327
wig	-11.7328
St	-11.7329
▁wilderness	-11.733
▁unemployed	-11.7333
▁Greater	-11.7334
▁pastry	-11.7335
▁fulfill	-11.7337
▁chronic	-11.7337
▁curator	-11.7339
▁boot	-11.7341
▁colleague	-11.7343
▁Philippines	-11.7344
IG	-11.7345
▁bug	-11.7351
▁Wang	-11.7354
▁indict	-11.7354
▁Burns	-11.7355
▁superstar	-11.7355
▁instances	-11.7356
iver	-11.736
ood	-11.7361
▁gallons	-11.7362
▁Kathlee	-11.7362
▁bipartisan	-11.7363
party	-11.7364
▁Ry	-11.7364
▁remov	-11.7368
▁para	-11.7369
▁boycott	-11.7371
▁Lunch	-11.7372
▁utter	-11.7376
▁silk	-11.7379
igan	-11.7385
▁Paso	-11.7385
▁Ring	-11.7386
▁squash	-11.7387
▁Chapter	-11.7387
▁Sco	-11.7387
▁themes	-11.7387
▁applicants	-11.7387
▁poured	-11.7387
▁Map	-11.7387
▁entertain	-11.7389
keeper	-11.7392
influenced	-11.7392
▁humanitarian	-11.7395
▁Sab	-11.7395
tail	-11.7395
RY	-11.7398
▁disclose	-11.74
▁competitor	-11.7401
▁Appeal	-11.7403
▁homemade	-11.7405
▁labeled	-11.7407
▁freshmen	-11.7409
▁$1,000	-11.7409
▁humanity	-11.7409
NA	-11.741
▁ID	-11.7414
▁Brenda	-11.7415
▁airplane	-11.7417
▁Capt	-11.7418
▁insert	-11.7419
▁niche	-11.7419
▁halfway	-11.7422
▁miracle	-11.7427
immerman	-11.7428
aging	-11.7428
iya	-11.7432
▁sandwiches	-11.7434
▁practically	-11.7435
▁Personal	-11.7435
▁bloody	-11.7437
▁Fridays	-11.7437
▁cookie	-11.7439
▁herbs	-11.7441
▁freeway	-11.7442
▁Czech	-11.7443
▁panels	-11.7444
atory	-11.745
▁technological	-11.7451
▁assassination	-11.7452
nu	-11.7453
▁Napa	-11.7456
gas	-11.7459
▁alternate	-11.7459
▁consent	-11.7459
▁compact	-11.7459
eu	-11.7464
▁Unless	-11.7465
▁spreading	-11.7466
▁chili	-11.7472
▁laps	-11.7473
▁wheat	-11.7473
▁scholarships	-11.7475
▁organizing	-11.7476
▁ANC	-11.7479
mari	-11.7486
▁Coll	-11.7486
▁Morrison	-11.7491
▁Edge	-11.7492
▁audio	-11.7493
mes	-11.7495
▁Fan	-11.7495
control	-11.7495
▁pronounced	-11.7496
▁Rico	-11.7496
▁List	-11.7497
▁outbreak	-11.7497
▁instructions	-11.7498
▁Hispanics	-11.7499
▁homeland	-11.7499
▁medication	-11.75
▁carrots	-11.7503
▁donation	-11.7506
▁reliever	-11.7506
▁Gal	-11.7507
▁Dam	-11.7507
wash	-11.7509
▁wives	-11.751
rio	-11.751
▁tart	-11.7511
edu	-11.7515
▁Duluth	-11.7516
▁telecommunicati	-11.7516
▁glory	-11.7516
▁blog	-11.7516
▁epic	-11.7517
▁canvas	-11.7517
▁2,500	-11.7518
▁Bert	-11.752
▁Online	-11.752
▁Tur	-11.7522
▁brave	-11.7522
▁obscure	-11.7524
▁Greene	-11.7524
financed	-11.7525
▁mines	-11.7526
▁relentless	-11.7526
▁robbery	-11.753
bil	-11.7531
fla	-11.7531
▁Norcross	-11.7532
▁angle	-11.7536
▁Malone	-11.7538
▁Matthews	-11.7544
nation	-11.7545
▁Scha	-11.7545
▁worthy	-11.7546
▁simultaneous	-11.7548
▁Sudden	-11.7549
runner	-11.7549
▁relaxed	-11.755
▁Chan	-11.755
▁staffers	-11.7551
▁Newton	-11.7553
▁appreciation	-11.7557
▁Kitchen	-11.7557
▁siblings	-11.7557
▁stays	-11.756
▁plug	-11.7562
▁Upper	-11.7566
▁bearing	-11.7566
▁IRA	-11.7567
▁Letters	-11.7567
▁confess	-11.7569
nyone	-11.7572
▁matching	-11.7577
▁timber	-11.7581
ATE	-11.7581
gie	-11.7584
▁queen	-11.7585
▁garnish	-11.7589
▁Bat	-11.7594
▁Tonight	-11.7594
DER	-11.7596
▁Netanyahu	-11.7597
mal	-11.7598
▁Sy	-11.7598
▁jets	-11.7599
▁valued	-11.76
▁22-	-11.7601
UN	-11.7604
▁toughest	-11.7605
▁Catherine	-11.7606
▁Padres	-11.7606
▁emotionally	-11.7608
4.4	-11.761
▁locally	-11.761
▁overhead	-11.7612
▁tribes	-11.7613
▁wonders	-11.7614
post	-11.7614
▁Sar	-11.7615
▁NOTES	-11.7617
▁felony	-11.762
▁creator	-11.7622
▁disability	-11.7623
▁Blood	-11.7625
▁scholar	-11.7627
track	-11.7628
▁counselor	-11.763
uick	-11.763
▁splash	-11.7631
▁Mickey	-11.7631
▁surveys	-11.7632
▁Parks	-11.7632
▁overturn	-11.7632
▁booming	-11.7633
ador	-11.7634
▁venues	-11.7635
▁stepping	-11.7636
▁Concert	-11.7636
▁suppliers	-11.7636
nar	-11.7638
▁Title	-11.7639
▁Vista	-11.7643
ith	-11.7646
▁Palace	-11.7647
▁tick	-11.7649
▁Non	-11.7651
▁missions	-11.7651
▁Shin	-11.7652
▁refuge	-11.7654
▁attacking	-11.7655
▁skiing	-11.7655
ologist	-11.7656
▁Lone	-11.7661
9-0	-11.7662
▁engaging	-11.7663
▁touches	-11.7663
▁stressed	-11.7664
▁rankings	-11.7667
▁cafe	-11.7667
▁Nichols	-11.7669
boat	-11.767
▁Favre	-11.7672
▁Herald	-11.7672
▁Crow	-11.7672
▁$100,000	-11.7673
▁wander	-11.7674
▁overwhelmed	-11.7677
hit	-11.7679
▁Prosecutor	-11.768
▁Schwartz	-11.768
UM	-11.768
▁purse	-11.768
rian	-11.7681
▁advisory	-11.7682
▁773	-11.7684
ealand	-11.7687
▁sporting	-11.7687
▁newcomers	-11.7687
▁sprawling	-11.7688
▁intact	-11.7689
TA	-11.7696
▁boomers	-11.7696
▁ensemble	-11.7696
▁divert	-11.7699
▁Payne	-11.7703
▁wagon	-11.7705
▁Joyce	-11.7705
hang	-11.7708
front	-11.7708
▁notable	-11.7709
ovich	-11.7712
▁liquor	-11.7713
▁aftermath	-11.7713
▁Northeast	-11.7713
zel	-11.7719
▁lovely	-11.772
▁graduat	-11.7721
▁Newark	-11.7721
▁laptop	-11.7722
▁productivity	-11.7722
shore	-11.7722
▁Strip	-11.7724
4.7	-11.7725
oma	-11.7726
▁televis	-11.7728
dis	-11.7729
▁Ac	-11.773
atter	-11.7733
▁assure	-11.7733
▁authentic	-11.7737
▁Alpharetta	-11.7738
-26	-11.7739
▁trapped	-11.7739
elect	-11.7742
nce	-11.7744
▁Support	-11.7746
▁Hawkins	-11.7747
tes	-11.7749
▁Norton	-11.775
▁zoo	-11.7751
▁1961	-11.7752
yan	-11.7754
▁constitute	-11.7755
▁unanimous	-11.7755
307	-11.7755
▁sidewalk	-11.7755
▁fits	-11.7757
▁stark	-11.7758
link	-11.776
▁layoffs	-11.7762
▁memoir	-11.7764
▁Victorian	-11.7764
▁Fra	-11.7765
▁Chef	-11.7767
best	-11.777
▁Thousand	-11.7771
▁Andersen	-11.7771
▁wrestling	-11.7771
stick	-11.7772
▁Thailand	-11.7772
▁Sto	-11.7773
▁followers	-11.7777
▁3-0	-11.7778
▁Average	-11.778
▁concessions	-11.7783
▁majors	-11.7783
ral	-11.7786
▁vest	-11.7787
▁vigorous	-11.7788
GO	-11.7789
3.7	-11.779
rite	-11.779
LU	-11.7792
ifying	-11.7792
▁electronics	-11.7795
▁comparable	-11.7795
▁Mann	-11.7796
-50	-11.7796
▁restoration	-11.7797
▁shed	-11.7799
▁statute	-11.7805
▁bailout	-11.7806
▁classrooms	-11.7806
▁Cantor	-11.7806
ori	-11.7808
▁MTV	-11.7811
▁Pour	-11.7811
▁slowed	-11.7812
▁turf	-11.7814
▁albums	-11.7816
tern	-11.7816
▁kickoff	-11.7816
▁offend	-11.7818
▁soaring	-11.782
▁303-954-	-11.7821
▁Dixon	-11.7821
▁awkward	-11.7821
▁breakthrough	-11.7822
sley	-11.7825
▁regulate	-11.7825
▁repairs	-11.7826
▁Cris	-11.7829
▁relie	-11.7829
PT	-11.783
▁underscore	-11.783
▁Thornton	-11.7831
▁tales	-11.7831
tone	-11.7832
▁Hit	-11.7832
▁tightly	-11.7833
eagle	-11.7836
▁boo	-11.7836
▁Clo	-11.7837
▁Eye	-11.7838
▁bonuses	-11.7838
▁1945	-11.784
▁informal	-11.7842
▁hardware	-11.7842
▁limitation	-11.7843
gh	-11.7844
▁Won	-11.785
▁$17	-11.7852
backed	-11.7853
▁shorter	-11.7853
▁Bou	-11.7855
▁Kurdish	-11.7855
▁Bran	-11.7857
▁Pol	-11.7861
▁liver	-11.7862
▁firmly	-11.7863
versus	-11.7864
▁altogether	-11.7864
▁Representative	-11.7864
▁partial	-11.7865
▁inspire	-11.7866
▁suck	-11.7866
▁Chile	-11.7869
▁tastes	-11.7871
▁failures	-11.7871
▁McCarthy	-11.7872
are	-11.7875
▁Vel	-11.7875
▁Cast	-11.7876
▁hallway	-11.7876
-72	-11.788
▁oust	-11.788
▁fraction	-11.788
▁urgent	-11.7881
▁Train	-11.7884
▁lion	-11.7884
rad	-11.7886
▁DU	-11.7887
▁committees	-11.7888
▁separation	-11.7889
▁viable	-11.789
floor	-11.7891
▁hug	-11.7896
▁outdoors	-11.7896
BR	-11.7897
▁Mohammed	-11.7897
▁Bloomberg	-11.7897
▁enroll	-11.79
▁stumble	-11.7903
▁Somalia	-11.7904
▁envelope	-11.7904
controlled	-11.7905
▁Gibbs	-11.7906
▁Amanda	-11.7906
stock	-11.7908
▁el	-11.7911
dia	-11.7914
▁turmoil	-11.7914
▁occasions	-11.7917
▁USC	-11.7918
▁endorse	-11.7919
ili	-11.7919
▁AD	-11.7922
oud	-11.7924
▁Doctors	-11.7926
▁lump	-11.7929
▁kit	-11.793
▁Analyst	-11.7931
▁Crystal	-11.7931
sson	-11.7931
▁tile	-11.7935
▁wet	-11.7938
▁fielder	-11.7938
▁Marion	-11.7938
▁jersey	-11.7939
▁filter	-11.794
▁supermarket	-11.7943
conscious	-11.7943
hin	-11.7943
▁PR	-11.7944
UND	-11.7945
▁Birmingham	-11.7945
watch	-11.7946
ense	-11.7946
▁essence	-11.7948
▁logo	-11.7949
gr	-11.795
▁interception	-11.7952
▁lets	-11.7952
4.6	-11.7955
▁detain	-11.7957
▁Buford	-11.7957
bol	-11.7958
▁dear	-11.7958
▁Webster	-11.7959
▁silly	-11.7965
raiser	-11.7966
▁Pin	-11.7966
▁Victoria	-11.7968
▁commerce	-11.7968
2.9	-11.7969
▁lovers	-11.797
▁blown	-11.7971
▁trio	-11.7972
▁Lewinsky	-11.7974
▁Oxford	-11.7974
▁NE	-11.7974
▁AAA	-11.7975
oy	-11.7981
▁Jennings	-11.7982
tigious	-11.7982
▁collections	-11.7985
cio	-11.7987
dal	-11.7989
▁practicing	-11.7991
▁Stop	-11.7991
▁Witt	-11.7991
▁vanish	-11.7992
▁$22	-11.7994
▁Barton	-11.7994
▁transaction	-11.7994
▁dec	-11.7996
▁Magazine	-11.7999
▁Malcolm	-11.7999
▁conversion	-11.7999
▁shall	-11.8003
▁Stra	-11.8004
▁desperately	-11.8004
▁poised	-11.8004
▁diced	-11.8004
▁Amazon	-11.8008
▁ideological	-11.8008
▁quantit	-11.8008
-29	-11.8008
▁Cro	-11.8008
▁Faith	-11.8009
▁upward	-11.8009
met	-11.8011
test	-11.8015
▁Diamond	-11.8016
▁Pot	-11.8019
▁Pierre	-11.802
▁cried	-11.802
▁singles	-11.8023
▁Ian	-11.8026
▁cigarettes	-11.8027
▁leverage	-11.8028
▁monument	-11.8029
una	-11.803
see	-11.8033
▁collaboration	-11.8033
▁Mercedes	-11.8033
▁prosperity	-11.8034
▁Cardinal	-11.8038
▁Nu	-11.8039
▁Kemp	-11.804
▁Turkish	-11.8042
▁consultants	-11.8043
▁Assad	-11.8044
ched	-11.8045
ART	-11.8045
▁Spirit	-11.8046
▁Croatia	-11.8047
▁1.2	-11.8049
▁laboratory	-11.8051
▁Overall	-11.8053
▁Pie	-11.8053
bag	-11.8053
▁Dark	-11.8056
▁fur	-11.8056
▁significance	-11.8059
▁Bri	-11.8062
▁Student	-11.8065
▁borrowed	-11.8066
▁Nevertheless	-11.8068
▁TB	-11.807
▁questionable	-11.8078
▁Interest	-11.8078
▁Brazilian	-11.8081
▁wheels	-11.8081
▁Kam	-11.8083
stage	-11.8084
▁immune	-11.8085
▁aunt	-11.8086
fected	-11.8086
▁stove	-11.8086
▁sympath	-11.8089
▁gallon	-11.809
▁Fun	-11.809
▁Row	-11.8092
▁favorable	-11.8092
▁Reading	-11.8095
▁skilled	-11.8095
▁subway	-11.8096
▁por	-11.8097
mouth	-11.8097
▁Preheat	-11.8102
▁tub	-11.8103
▁hitters	-11.8103
▁Basic	-11.8104
uestion	-11.8105
▁thrive	-11.8108
▁Jar	-11.8109
▁225	-11.8112
▁announc	-11.8115
▁entr	-11.8116
fold	-11.8116
▁neglect	-11.8116
▁heal	-11.8117
▁cope	-11.8117
▁sprinkle	-11.8118
▁gulf	-11.8119
▁marble	-11.8119
▁cyber	-11.812
▁turnaround	-11.812
▁nickname	-11.8122
▁Cable	-11.8124
▁Crime	-11.8124
after	-11.8124
▁implications	-11.8126
▁leased	-11.8127
▁restricted	-11.8127
▁Reeves	-11.8128
▁Carnegie	-11.8128
▁Tex	-11.8129
▁stakes	-11.8131
hel	-11.8133
▁Dome	-11.8133
▁imp	-11.8135
▁apples	-11.8136
▁communist	-11.8136
▁whale	-11.8137
▁switched	-11.8137
▁Cl	-11.814
▁VI	-11.8142
▁lesser	-11.8143
▁Sin	-11.8143
▁Double	-11.8144
▁instrument	-11.8145
▁theatrical	-11.8145
▁Chapel	-11.8146
DA	-11.8146
▁Marlins	-11.8146
ake	-11.8148
▁210	-11.8148
watches	-11.8151
▁islands	-11.8151
cock	-11.8151
▁CAR	-11.8154
▁Intelligence	-11.8154
aga	-11.8155
▁Chicken	-11.8155
▁Char	-11.8158
ault	-11.8161
▁chunk	-11.8162
▁spectrum	-11.8163
▁Angela	-11.8166
▁Flat	-11.817
TC	-11.817
▁Depression	-11.8171
▁Kabul	-11.8171
▁decrease	-11.8174
▁thriv	-11.8174
▁retailer	-11.8174
▁homework	-11.8175
ska	-11.8176
▁Farmers	-11.8181
collar	-11.8181
iron	-11.8182
▁intensive	-11.8183
purpose	-11.8183
▁economically	-11.8184
strom	-11.8186
▁horizon	-11.8188
▁northeast	-11.8189
▁Richards	-11.8189
▁healing	-11.819
▁Broad	-11.8191
▁Mesa	-11.8194
-40	-11.8195
▁Going	-11.8195
GA	-11.8195
▁endangered	-11.8196
▁embarrassing	-11.8199
▁Coming	-11.8201
eo	-11.8203
▁FT	-11.8203
▁episodes	-11.8205
▁ministers	-11.8206
▁drastic	-11.8206
nk	-11.8206
▁Unit	-11.8209
▁nail	-11.821
hall	-11.8211
▁flexible	-11.8215
▁Stuart	-11.8215
dresses	-11.8216
▁Marvin	-11.8217
EC	-11.8217
▁guilt	-11.822
mbo	-11.8221
▁Historical	-11.8221
▁finest	-11.8221
▁cops	-11.8222
▁Villa	-11.8223
songwriter	-11.8223
▁isolation	-11.8224
aire	-11.8225
▁commentary	-11.8227
▁squeeze	-11.8228
▁render	-11.8229
bor	-11.8229
▁Wendy	-11.8232
▁lesbian	-11.8233
liance	-11.8235
▁institutional	-11.8235
ender	-11.8237
▁flesh	-11.8237
▁greenhouse	-11.8237
▁lend	-11.824
▁Nuggets	-11.8241
▁hiking	-11.8241
ction	-11.8241
▁tribe	-11.8243
▁chop	-11.8246
environmentalist	-11.8246
▁passer	-11.8249
▁Trinity	-11.825
▁addressing	-11.825
iti	-11.8251
:35	-11.8253
▁pig	-11.8254
▁knees	-11.8255
:50	-11.8256
ically	-11.8257
graders	-11.8258
▁royal	-11.8258
▁crashed	-11.8258
▁greed	-11.8259
uting	-11.826
▁shook	-11.8262
cia	-11.8263
ency	-11.8265
▁shelters	-11.8267
▁identification	-11.8267
▁unhappy	-11.8268
▁aisle	-11.8268
▁brokers	-11.8268
▁Pierce	-11.8268
▁Curry	-11.8268
acted	-11.827
▁charming	-11.827
▁zones	-11.8271
band	-11.8271
rail	-11.8275
▁credential	-11.8276
▁EU	-11.8278
▁fork	-11.8278
▁novels	-11.8282
▁speakers	-11.8283
proof	-11.8285
▁Airways	-11.8285
KE	-11.8287
▁barrels	-11.8287
ila	-11.8292
second	-11.8293
▁Holly	-11.8294
▁curtain	-11.8294
kins	-11.8294
▁conscious	-11.8296
▁blocking	-11.8299
▁rivers	-11.8299
▁chew	-11.83
▁ET	-11.8301
cott	-11.8305
▁BP	-11.8305
▁Deborah	-11.8311
▁Providence	-11.8311
▁discard	-11.8312
not	-11.8312
▁freestyle	-11.8313
▁swap	-11.8316
▁inappropriate	-11.8316
▁someday	-11.8317
▁Date	-11.8317
▁Jacobs	-11.8319
etter	-11.832
▁slogan	-11.832
▁orbit	-11.832
▁trademark	-11.8321
▁relax	-11.8322
▁corps	-11.8323
▁washed	-11.8325
▁amaz	-11.8325
▁Superior	-11.8329
mu	-11.8329
▁grid	-11.8333
▁touring	-11.8333
▁sore	-11.8335
▁mob	-11.8335
▁ultra	-11.8338
tine	-11.8338
▁Legal	-11.8338
▁Craft	-11.8344
▁voluntary	-11.8346
▁Allison	-11.8349
▁Vince	-11.8353
▁demonstrat	-11.8353
▁Neu	-11.8354
how	-11.8354
▁Abraham	-11.8355
▁Netherlands	-11.8355
▁volleyball	-11.8355
▁elevator	-11.8356
▁Forbes	-11.8356
▁Rodney	-11.8356
▁crackdown	-11.8356
▁Members	-11.8357
▁Boyd	-11.8357
saw	-11.8358
▁Jill	-11.8358
wear	-11.8359
dra	-11.836
▁Dodge	-11.8362
▁Smart	-11.8367
▁footage	-11.8368
ates	-11.8369
▁Sydney	-11.8373
▁bachelor	-11.8373
▁purple	-11.8373
▁convenient	-11.8373
aj	-11.8374
▁Cons	-11.8377
▁logic	-11.8377
▁650	-11.8379
▁rifle	-11.8379
▁distribute	-11.838
▁strand	-11.8382
▁prevented	-11.8382
▁dissent	-11.8382
▁Leo	-11.8383
▁cement	-11.8383
▁evaluate	-11.8387
▁celebriti	-11.8387
esh	-11.8387
driven	-11.8389
▁mint	-11.8389
treating	-11.839
▁Owner	-11.8391
▁imported	-11.8393
▁Ramirez	-11.8393
▁sewer	-11.8393
▁endors	-11.8394
chron	-11.8395
▁Serbian	-11.8396
▁licensed	-11.8396
▁Triple	-11.8398
▁cult	-11.84
▁Running	-11.84
▁Made	-11.8401
▁clam	-11.8402
tta	-11.8405
▁l	-11.8406
▁Sad	-11.8407
▁Fried	-11.8407
▁**29;	-11.8408
▁tires	-11.8409
▁acclaim	-11.8409
▁imagined	-11.8413
8.5	-11.8415
▁investigated	-11.8415
▁instinct	-11.8417
▁Beer	-11.8417
▁Pueblo	-11.8417
▁Vancouver	-11.8417
▁intriguing	-11.8417
▁distinctive	-11.8418
▁preservation	-11.8421
▁Chevrolet	-11.8422
lies	-11.8425
▁Bass	-11.8425
▁Marilyn	-11.8426
▁Register	-11.8427
▁rehabilitation	-11.8427
▁unity	-11.8428
▁examination	-11.843
▁merit	-11.8433
stro	-11.8433
▁lung	-11.8434
▁patrons	-11.8437
▁courthouse	-11.8437
▁scan	-11.8442
ALL	-11.8443
▁lobbyist	-11.8443
▁Teachers	-11.8443
IST	-11.8444
▁3-1	-11.8444
washpost	-11.8444
MC	-11.8445
ovic	-11.8446
▁Warriors	-11.845
▁Survivors	-11.8451
cept	-11.8452
▁sacred	-11.8453
▁reunion	-11.8453
▁Sudan	-11.8454
▁zoning	-11.8455
▁Liz	-11.8459
▁pole	-11.8459
▁Pasadena	-11.8462
▁Mickelson	-11.8462
sign	-11.8462
▁massacre	-11.8463
▁insurgents	-11.8465
▁Morton	-11.8465
▁Christie	-11.8467
▁safely	-11.847
▁grief	-11.8471
▁Bills	-11.8474
▁Tara	-11.8478
▁Alameda	-11.848
Pa	-11.848
▁reflection	-11.8481
mic	-11.8483
▁corners	-11.8487
▁Eli	-11.8487
▁demonstration	-11.8488
▁fines	-11.8489
▁fluid	-11.849
▁Ferry	-11.8491
ava	-11.8491
▁delight	-11.8493
▁retirees	-11.8494
▁protective	-11.8494
▁Bengals	-11.8498
lessness	-11.85
▁cliff	-11.8501
▁finishes	-11.8503
▁Deputy	-11.8507
▁implant	-11.8507
▁CITY	-11.8508
distance	-11.8509
▁Cit	-11.8512
▁lieutenant	-11.8516
▁surpass	-11.8516
▁rehearsal	-11.8516
▁Barkley	-11.8516
▁examined	-11.8517
kowski	-11.8519
▁melted	-11.8519
▁Th	-11.852
▁tube	-11.8523
▁Logan	-11.8524
▁Neal	-11.8525
▁Cynthia	-11.8525
▁basil	-11.8525
lanes	-11.8526
▁shipp	-11.8528
▁3-2	-11.8532
▁Piedmont	-11.8534
▁tutor	-11.8534
▁brake	-11.8534
▁Sandra	-11.8539
donors	-11.8541
▁maps	-11.8542
▁essay	-11.8542
▁AMERICAN	-11.8544
▁cleaner	-11.8546
▁components	-11.8548
▁dual	-11.855
▁icon	-11.8554
▁Lafayette	-11.8555
▁slim	-11.8557
720	-11.856
▁Fresno	-11.8561
▁biography	-11.8561
▁authoriz	-11.8561
▁bureaucracy	-11.8563
▁treasure	-11.8566
about	-11.8567
▁periods	-11.8569
▁Embassy	-11.857
▁assemble	-11.857
▁Kid	-11.8572
▁Loop	-11.8572
ush	-11.8575
▁dispatch	-11.8575
HI	-11.8575
uf	-11.8577
222	-11.8578
▁absurd	-11.8579
▁robust	-11.8579
▁103	-11.8581
▁flags	-11.8582
▁Starting	-11.8582
▁travels	-11.8582
due	-11.8583
▁Av	-11.8585
▁seasonal	-11.8585
▁ART	-11.8586
master	-11.8587
▁Heisman	-11.8588
▁12:30	-11.859
▁embarrassed	-11.8592
▁limiting	-11.8592
▁Hawk	-11.8593
▁skating	-11.8595
▁$10,000	-11.8599
▁Daniels	-11.8601
▁shine	-11.8601
▁stew	-11.8606
rac	-11.8609
▁Sears	-11.861
▁shirts	-11.8612
▁unnecessary	-11.8615
▁Prop	-11.8618
▁6-9	-11.8619
▁throat	-11.8626
▁300,000	-11.8627
▁defender	-11.8628
▁inspect	-11.863
hir	-11.863
▁directing	-11.8633
▁Adrian	-11.8633
INT	-11.8634
▁Break	-11.8635
▁Berg	-11.8637
Saturday	-11.864
berries	-11.8641
▁Seahawks	-11.8642
▁ribs	-11.8643
▁input	-11.8645
▁donate	-11.8647
▁launching	-11.8648
▁Wide	-11.8648
▁turnovers	-11.8651
▁fantastic	-11.8652
▁supporter	-11.8652
▁thread	-11.8652
▁UT	-11.8653
▁1948	-11.8655
▁shooter	-11.8657
mentality	-11.8659
▁Publishing	-11.8661
▁Vanderbilt	-11.8661
▁playwright	-11.8661
▁Globe	-11.8661
▁dumb	-11.8662
▁Rhode	-11.8663
colored	-11.8667
▁builders	-11.8668
▁Woman	-11.8668
▁recycling	-11.867
▁Target	-11.867
▁halftime	-11.8671
ander	-11.8671
▁AA	-11.8673
▁imports	-11.8676
nik	-11.8678
▁$300	-11.8678
▁Holocaust	-11.8679
pass	-11.8685
▁Peak	-11.8686
▁rode	-11.8686
▁variation	-11.8688
▁Studio	-11.8693
nut	-11.8693
▁qualitie	-11.8697
▁strangers	-11.87
▁haul	-11.8704
▁Nobel	-11.8704
▁fragile	-11.8706
▁newsletter	-11.8707
▁Maxwell	-11.8707
▁lighter	-11.8707
rak	-11.8708
▁representation	-11.8708
▁Result	-11.871
▁breakdown	-11.871
▁denie	-11.8711
▁lecture	-11.8712
aud	-11.8713
▁trauma	-11.8715
▁disadvantage	-11.8716
▁Except	-11.8716
▁Lip	-11.8716
▁compensate	-11.8718
▁fireplace	-11.8718
▁Imagine	-11.8725
MB	-11.8726
fest	-11.8727
▁cancel	-11.8733
750	-11.8736
▁Cool	-11.8741
IV	-11.8743
▁mechanism	-11.8743
▁founding	-11.8745
▁BE	-11.875
dozen	-11.8751
▁Soccer	-11.8752
▁WHAT	-11.8752
▁MARTA	-11.8752
▁Saint	-11.8753
▁Pier	-11.8753
bach	-11.8755
▁PRO	-11.876
▁attractions	-11.8761
▁tab	-11.8761
▁psychology	-11.8762
gger	-11.8763
▁thoughtful	-11.8764
▁peanut	-11.8766
▁Mol	-11.8767
▁faithful	-11.877
▁invite	-11.8771
▁convincing	-11.8771
▁dignity	-11.8771
▁escort	-11.8771
FA	-11.8773
▁dictate	-11.8773
▁screw	-11.8774
▁highways	-11.8775
▁Carolyn	-11.8775
▁bounce	-11.8776
▁hazard	-11.8779
▁exhaust	-11.878
▁Mediterranean	-11.878
▁stalk	-11.878
▁battered	-11.8786
▁sticking	-11.8789
▁denial	-11.8789
AA	-11.8792
▁rub	-11.8793
NY	-11.8796
▁Evan	-11.8796
▁thriller	-11.8796
▁populations	-11.8797
▁contributing	-11.8798
▁gospel	-11.8798
▁clever	-11.8798
▁Planning	-11.8798
▁repeal	-11.8799
zen	-11.8806
▁Clemson	-11.8808
kov	-11.8809
▁Chevy	-11.881
▁criticize	-11.8813
▁cats	-11.8813
EAR	-11.8814
mun	-11.8814
around	-11.8815
▁uprising	-11.8816
battling	-11.8817
▁terrain	-11.8817
▁irony	-11.8817
▁Aspen	-11.8819
▁magnet	-11.8819
▁Californian	-11.8819
rov	-11.8822
▁container	-11.8823
▁Calvin	-11.8824
▁slavery	-11.8827
▁seating	-11.8833
9.95	-11.8834
▁scarce	-11.8835
▁regain	-11.8836
▁challenger	-11.8837
▁upgrade	-11.8839
▁Foods	-11.8839
5.7	-11.884
clock	-11.8841
▁bizarre	-11.8845
▁cooperative	-11.8845
▁AS	-11.8846
Ricky	-11.8847
▁singers	-11.8848
lander	-11.8849
▁doubles	-11.8849
comb	-11.885
▁aluminum	-11.8851
▁loop	-11.8852
▁Supervisor	-11.8854
▁Storm	-11.8855
▁Marsh	-11.8857
▁tenant	-11.8861
▁Block	-11.8861
▁Crew	-11.8862
4.8	-11.8862
▁Fran	-11.8862
▁GO	-11.8863
▁Harlem	-11.8863
uni	-11.8866
solving	-11.8867
▁indicates	-11.8868
▁sticker	-11.8871
▁Favorite	-11.8873
▁Plant	-11.8873
▁Swa	-11.8873
▁rob	-11.8874
▁waiter	-11.8876
readily	-11.8877
▁prop	-11.8879
inn	-11.8881
▁Derrick	-11.8882
▁intentions	-11.8885
▁partially	-11.8889
vol	-11.889
▁Kane	-11.8891
▁Campaign	-11.8891
▁subsidiary	-11.8891
▁Lehman	-11.8891
▁Rebecc	-11.8891
▁Cabinet	-11.8891
▁Shirley	-11.8892
▁Kelley	-11.8892
▁Kha	-11.8894
▁Erik	-11.8895
tag	-11.8897
▁priests	-11.8899
arian	-11.8901
▁185	-11.8902
▁gloves	-11.8903
▁scream	-11.8903
▁BART	-11.8905
▁complet	-11.8905
▁strictly	-11.8905
▁flowing	-11.8906
▁Strong	-11.8907
▁publish	-11.8908
▁hunger	-11.8908
▁Daly	-11.8911
lov	-11.8911
▁humble	-11.8912
▁Led	-11.8913
▁Order	-11.8916
▁bypass	-11.8917
▁colored	-11.8917
VI	-11.8917
▁textbook	-11.892
▁Polish	-11.892
▁NY	-11.892
itted	-11.8922
▁Hell	-11.8922
▁Barrett	-11.8922
ancy	-11.8927
▁casinos	-11.8929
▁SUV	-11.8929
▁saves	-11.8937
Sunday	-11.8937
▁Rodgers	-11.8938
lift	-11.8939
▁Marty	-11.8945
▁Levi	-11.8947
▁Benson	-11.8947
▁Mind	-11.8947
business	-11.8947
▁continuous	-11.8947
ites	-11.8948
▁congressman	-11.8948
▁heroin	-11.8949
▁beaches	-11.895
▁Clarke	-11.895
▁intentional	-11.8952
mission	-11.8954
▁oxygen	-11.8957
▁Huntington	-11.8957
ucci	-11.8958
▁advertisers	-11.8958
▁monitors	-11.8958
▁removal	-11.896
gro	-11.8962
▁dilemma	-11.8966
▁arise	-11.8972
abilities	-11.8974
▁dive	-11.8975
▁SS	-11.8975
▁floating	-11.8976
▁outline	-11.898
▁cooperate	-11.898
▁coordinate	-11.8981
▁ACT	-11.8981
▁Giuliani	-11.8985
▁Watkins	-11.8985
▁Cypress	-11.8985
▁401(	-11.8986
▁verbal	-11.8987
▁insult	-11.8988
nis	-11.8988
▁crumbl	-11.8989
▁Hyde	-11.8991
mount	-11.8992
▁hurdles	-11.8992
EE	-11.8997
▁Investors	-11.8999
▁DR	-11.8999
▁planting	-11.8999
▁Sonoma	-11.9
vic	-11.9002
▁Stay	-11.9003
▁southeast	-11.9004
▁Abdul	-11.9004
course	-11.9005
▁PO	-11.9006
▁berth	-11.9006
▁bent	-11.9008
▁Brent	-11.901
▁stall	-11.9011
▁lament	-11.9013
▁flies	-11.9014
▁Visitors	-11.9015
▁Range	-11.9016
zu	-11.9019
eth	-11.902
green	-11.902
▁cave	-11.9022
mir	-11.9022
▁Singapore	-11.9023
▁bang	-11.9023
▁chile	-11.9025
▁Islamist	-11.9026
▁explode	-11.9028
▁Results	-11.9029
▁spicy	-11.9032
▁Melissa	-11.9032
▁Presbyterian	-11.9033
▁softball	-11.9034
▁temple	-11.9034
4-5	-11.9035
▁republics	-11.9037
▁Professional	-11.9044
▁Career	-11.9045
chasing	-11.9045
▁Rule	-11.9049
▁Contribut	-11.9051
▁debris	-11.9051
verse	-11.9053
▁renewable	-11.9055
▁contention	-11.906
large	-11.9061
▁Past	-11.9061
▁Rivera	-11.9062
▁Mah	-11.9063
▁output	-11.9063
ddle	-11.9067
▁epidemic	-11.907
▁Soul	-11.9071
▁addresse	-11.9071
▁prisoner	-11.9072
▁lamp	-11.9074
▁Arabs	-11.9075
ivity	-11.9077
▁Bos	-11.9077
affiliated	-11.9079
▁Visit	-11.9079
▁premise	-11.908
▁Desert	-11.908
▁dial	-11.908
▁Chandler	-11.9081
▁exempt	-11.9084
▁skip	-11.9084
▁laser	-11.9085
▁skate	-11.9087
▁Fight	-11.909
▁rat	-11.909
▁stored	-11.909
nor	-11.9091
▁recreational	-11.9091
▁boring	-11.9092
▁handles	-11.9096
▁conditioning	-11.9097
▁Close	-11.9098
▁Marriott	-11.9099
▁Scotland	-11.9099
▁unbelievabl	-11.9099
▁Probabl	-11.9099
sten	-11.9101
▁escap	-11.9104
▁inventory	-11.9104
▁Paula	-11.9108
▁$60	-11.9108
▁aviation	-11.9108
▁lifting	-11.911
▁commercials	-11.9112
▁Cer	-11.9112
hat	-11.9117
▁Yellow	-11.9118
▁Halloween	-11.9118
▁explicit	-11.9118
▁congestion	-11.9118
▁elder	-11.9119
▁perch	-11.912
▁1959	-11.9123
leg	-11.9123
▁Edison	-11.9128
▁Cru	-11.9129
fall	-11.913
ben	-11.9131
▁pill	-11.9133
etz	-11.9134
ike	-11.9136
orn	-11.9136
▁sampling	-11.9137
▁carved	-11.9137
▁spice	-11.9137
▁tire	-11.9145
▁cookbook	-11.9148
LEY	-11.9149
▁negotiator	-11.9149
▁duo	-11.915
▁component	-11.9151
eaten	-11.9151
▁Joint	-11.9151
raw	-11.9152
▁JOHN	-11.9156
▁Frazier	-11.9156
▁precedent	-11.9156
ager	-11.9157
5.4	-11.9158
▁tailor	-11.9159
▁Vin	-11.9159
▁Days	-11.9159
▁heighten	-11.916
▁Scar	-11.9162
▁Khan	-11.9164
▁holy	-11.9164
▁Freddie	-11.9166
▁Norway	-11.9167
▁Joy	-11.917
4-0	-11.9171
▁Mariners	-11.9173
▁tolerance	-11.9174
▁Together	-11.9175
▁Paramount	-11.9175
▁dipp	-11.9179
▁adjusted	-11.9181
▁stamp	-11.9183
▁creativity	-11.9185
▁galleries	-11.9185
▁crystal	-11.9185
▁crunch	-11.919
▁Venezuela	-11.9191
▁secrets	-11.9193
▁gig	-11.9194
▁unwilling	-11.9195
▁Kaiser	-11.9195
uted	-11.92
▁Protestant	-11.9204
▁prospective	-11.9206
▁Williamson	-11.9207
▁Ser	-11.9208
▁Sche	-11.9208
atch	-11.9209
▁rebound	-11.9213
▁associates	-11.9213
▁SC	-11.9214
▁cilantro	-11.9214
▁chorus	-11.9214
▁4.5	-11.9215
▁Coors	-11.9215
▁NORTH	-11.9215
TY	-11.9215
▁x	-11.9216
▁Carmel	-11.9216
▁Stro	-11.9216
▁keen	-11.9216
▁wallet	-11.9218
▁defect	-11.9219
▁norm	-11.922
375	-11.9222
▁pros	-11.9223
▁Mitch	-11.9223
▁antique	-11.9223
▁restructuring	-11.9223
▁Construction	-11.9224
length	-11.9227
▁experimental	-11.9228
▁Pink	-11.9229
▁seldom	-11.9233
▁accustom	-11.9233
▁accuse	-11.9233
▁230	-11.9233
▁chill	-11.9234
▁unfold	-11.9235
▁1956	-11.9238
▁Fin	-11.9238
▁Read	-11.9239
▁gifted	-11.9239
constructed	-11.924
tted	-11.924
▁scoop	-11.9243
▁heavyweight	-11.9243
wl	-11.9244
▁STATE	-11.9249
weight	-11.9251
ICK	-11.9252
▁construct	-11.9252
▁staple	-11.9252
good	-11.9253
▁Midtown	-11.9253
▁heels	-11.9256
salted	-11.9256
teen	-11.9256
▁guides	-11.9259
▁Bulldogs	-11.9262
▁Either	-11.9262
▁Hezbollah	-11.9262
▁yogurt	-11.9262
▁vegetarian	-11.9262
▁shootings	-11.9262
rat	-11.9264
▁PARK	-11.9265
▁Tru	-11.9266
TING	-11.9266
▁Fear	-11.9266
▁blank	-11.9268
ld	-11.9272
▁Titans	-11.9272
PS	-11.9276
mails	-11.9279
rill	-11.928
▁tin	-11.928
▁grated	-11.928
▁metropolitan	-11.9281
▁pricing	-11.9282
▁satisfaction	-11.9283
▁implie	-11.9284
▁magical	-11.9285
▁Gran	-11.9286
▁strips	-11.9288
▁beard	-11.9288
▁shouted	-11.929
isco	-11.9291
▁evangelical	-11.9291
▁choir	-11.9291
▁paycheck	-11.9293
uer	-11.9295
▁detainee	-11.9295
lla	-11.9296
▁cracked	-11.9296
▁varied	-11.9301
▁abrupt	-11.9301
▁swallow	-11.9301
▁Ship	-11.9302
:00	-11.9303
▁Wake	-11.9303
▁mineral	-11.9303
▁Tele	-11.9304
▁DJ	-11.9305
▁curl	-11.9307
▁accomplishments	-11.9308
▁prisons	-11.9309
▁Save	-11.9309
▁ambulance	-11.9311
▁criteria	-11.9311
▁pharmaceutical	-11.9311
▁dictator	-11.9311
participated	-11.9312
▁bacteria	-11.9312
LINE	-11.9313
stretches	-11.9315
▁Kal	-11.9316
▁insect	-11.9316
▁Empire	-11.932
▁cottage	-11.932
-80	-11.9321
fra	-11.9324
▁bedrooms	-11.9326
▁architects	-11.9327
▁Dayton	-11.9328
▁Canton	-11.933
▁polling	-11.933
▁aesthetic	-11.933
▁Chapman	-11.933
aria	-11.9332
▁Weather	-11.9337
▁23-	-11.934
▁Families	-11.934
▁ladies	-11.934
▁sympathetic	-11.934
▁Okla	-11.934
▁Oz	-11.9343
▁Hut	-11.9344
▁Browns	-11.9348
▁electoral	-11.935
GE	-11.9352
horsepower	-11.9353
neck	-11.9359
where	-11.9363
▁nod	-11.9363
▁Newport	-11.9364
5-0	-11.9369
▁spouse	-11.9369
▁Immigration	-11.9369
▁deputi	-11.9369
▁HR	-11.937
hitter	-11.9374
▁1.3	-11.9376
▁stranger	-11.9376
▁expose	-11.9379
▁Prairie	-11.9379
▁affluent	-11.9379
gun	-11.938
▁Hitler	-11.938
▁rod	-11.938
▁persist	-11.9381
▁Hogan	-11.9381
▁roller	-11.9383
fly	-11.9383
▁fruits	-11.9385
▁mechanical	-11.9386
▁coconut	-11.9389
▁Derby	-11.939
▁angel	-11.9391
▁cloth	-11.9392
▁Jer	-11.9394
▁setback	-11.9396
▁champagne	-11.9399
▁lavish	-11.9399
▁Nash	-11.9399
▁spinach	-11.9399
▁Sally	-11.94
complaining	-11.9402
▁interaction	-11.9403
▁posts	-11.9405
ele	-11.9405
▁salsa	-11.9408
▁Singer	-11.9414
wherever	-11.9416
▁bean	-11.9418
▁Sur	-11.9419
▁adaptation	-11.942
▁Edgar	-11.942
7-0	-11.942
▁Peru	-11.942
▁Weaver	-11.9422
6-0	-11.9424
worthy	-11.9426
▁Hugh	-11.9427
▁pets	-11.9427
▁Property	-11.9428
▁psychiatrist	-11.9428
▁thyme	-11.9428
▁stride	-11.9428
cum	-11.9429
▁911	-11.9429
▁chunks	-11.9429
▁tuna	-11.9432
No	-11.9434
non	-11.9435
adi	-11.9439
▁Count	-11.9448
▁Advisor	-11.9448
▁elephant	-11.9448
▁Funeral	-11.9448
▁lobster	-11.9448
▁incorporate	-11.945
▁tar	-11.9452
eller	-11.9452
anna	-11.9456
▁instantly	-11.9456
▁Video	-11.9457
250	-11.9457
dded	-11.9457
open	-11.9459
▁puff	-11.9461
press	-11.9461
pol	-11.9464
▁proponent	-11.9466
▁slaughter	-11.9468
▁Levy	-11.9469
▁linger	-11.9469
▁naive	-11.9469
▁Citizens	-11.9469
▁Davidson	-11.947
▁concentrat	-11.947
▁4-1	-11.9472
▁Riverside	-11.9473
▁Independence	-11.9475
▁Disease	-11.9478
▁lonely	-11.9478
▁betting	-11.9478
▁allied	-11.9481
▁12,000	-11.9481
bridge	-11.9483
80,000	-11.9485
▁FO	-11.9487
▁descend	-11.9488
▁rip	-11.9488
▁preschool	-11.9489
▁rational	-11.9494
▁Prevention	-11.9498
phy	-11.9498
▁demographic	-11.95
▁Sharp	-11.95
▁pools	-11.9503
▁Rhodes	-11.9505
ular	-11.9506
▁lover	-11.9507
▁composition	-11.9507
awn	-11.9509
language	-11.9509
▁scam	-11.951
-69	-11.9511
▁professors	-11.9512
▁exclud	-11.9515
▁Hundred	-11.9517
▁Mozart	-11.9517
▁spiral	-11.9517
▁2016	-11.9518
▁gut	-11.9519
▁complication	-11.9519
▁Grass	-11.9519
wich	-11.9521
▁summon	-11.9521
5-3	-11.9522
▁Ant	-11.9522
▁lifelong	-11.9527
▁Shanahan	-11.9527
matched	-11.9527
▁sunny	-11.9528
▁successes	-11.9528
▁28-	-11.953
inski	-11.9533
▁lining	-11.9534
▁App	-11.9534
▁sway	-11.9535
▁Relations	-11.9537
▁appetite	-11.9537
▁lettuce	-11.9537
incorporated	-11.9539
▁mistaken	-11.9539
▁BY	-11.9542
▁superb	-11.9542
faced	-11.9543
invented	-11.9544
rah	-11.9545
▁sting	-11.9546
▁Shanghai	-11.9547
▁lightning	-11.9547
bell	-11.9547
▁similarly	-11.9547
▁Transfer	-11.9549
▁lacks	-11.955
▁Wie	-11.9553
▁Belle	-11.9553
▁stretched	-11.9555
jan	-11.9558
▁imposing	-11.9558
edge	-11.9558
▁lineman	-11.9559
▁kidney	-11.9559
▁qualifying	-11.956
▁CS	-11.956
▁Yankee	-11.9561
▁broadcaster	-11.9562
▁symbolic	-11.9563
▁nutrition	-11.9565
fri	-11.9566
▁hunter	-11.9569
▁briefing	-11.957
tha	-11.9571
▁advertisement	-11.9572
▁laundry	-11.9577
▁Englewood	-11.9578
▁Enter	-11.958
▁halls	-11.958
COM	-11.9583
▁intercept	-11.9586
▁borrowing	-11.9586
▁wit	-11.9587
▁Nolan	-11.9587
▁entrees	-11.9592
▁clouds	-11.9592
mph	-11.9592
▁mal	-11.9594
waiting	-11.9595
▁affecting	-11.9595
▁DA	-11.9596
▁Cindy	-11.9597
▁varieti	-11.9597
▁web	-11.9597
▁Ter	-11.9597
▁Compar	-11.9599
▁advances	-11.9602
aka	-11.9602
▁Julian	-11.9603
▁ER	-11.9606
▁stairs	-11.9607
▁Conservative	-11.9607
▁Dee	-11.9607
▁60-	-11.961
▁Points	-11.9614
▁videotape	-11.9614
▁lodge	-11.9617
▁Rais	-11.9625
▁syndrome	-11.9627
▁boutique	-11.9627
▁integration	-11.9628
▁tighten	-11.9631
▁Deer	-11.9632
relied	-11.9633
ctor	-11.9635
▁onstage	-11.9636
▁Madonna	-11.9637
▁sprout	-11.9637
▁Section	-11.9637
▁Panama	-11.9637
brand	-11.9638
▁hover	-11.9638
LL	-11.9639
rone	-11.9641
▁1954	-11.9641
vie	-11.9645
▁Gabriel	-11.9647
lett	-11.9649
▁Pra	-11.9651
▁proceedings	-11.9651
▁statistical	-11.9652
▁smiles	-11.9653
▁Dorothy	-11.9657
▁115	-11.966
▁Author	-11.966
aya	-11.9663
▁Franco	-11.9666
▁faded	-11.9667
▁virtue	-11.9667
▁McGwire	-11.9667
▁Busch	-11.9668
255	-11.9669
▁YOU	-11.9671
▁Know	-11.9673
▁offshore	-11.9673
▁215	-11.9674
▁102	-11.9676
▁Tulsa	-11.9677
▁bruise	-11.9677
▁Fre	-11.9678
▁grin	-11.9678
▁swell	-11.9678
▁Institution	-11.968
its	-11.9681
6.6	-11.9683
▁0-2	-11.9686
▁scout	-11.9686
▁conscience	-11.9688
▁clue	-11.9688
-73	-11.9688
▁satisfy	-11.9689
▁consciousness	-11.9689
▁Diaz	-11.9689
▁Sixth	-11.969
▁belonging	-11.969
▁Weiss	-11.9692
-90	-11.9693
▁blessed	-11.9696
withstand	-11.9697
▁continual	-11.9698
▁Randall	-11.9698
▁workshops	-11.9698
ote	-11.9702
▁Pack	-11.9703
oke	-11.9704
UD	-11.9704
edited	-11.9705
▁ponder	-11.9706
▁concussion	-11.9708
▁pianist	-11.9708
paying	-11.9708
▁Clement	-11.9709
:30	-11.971
▁reign	-11.9713
▁desserts	-11.9714
▁WE	-11.9714
▁Training	-11.9714
stalled	-11.9715
▁450	-11.9715
5.6	-11.9715
▁riches	-11.9716
▁Cairo	-11.9718
▁Rouge	-11.9718
▁buffet	-11.9719
▁Buckhead	-11.9719
▁ethic	-11.9719
▁Collection	-11.9719
▁practiced	-11.9719
▁250,000	-11.9719
▁salesman	-11.9721
▁Manuel	-11.9723
appreciated	-11.9723
▁reap	-11.9726
▁Sor	-11.9726
▁purchasing	-11.9728
▁tropical	-11.9728
▁vibrant	-11.9728
▁shells	-11.9735
▁BMW	-11.9738
▁embark	-11.9738
▁vault	-11.9738
▁devastat	-11.9738
agan	-11.9739
▁Whitney	-11.9739
mas	-11.974
▁abortions	-11.9742
growers	-11.9743
▁hooked	-11.9744
sistence	-11.9744
▁Vick	-11.9744
▁Broadcasting	-11.9745
▁pal	-11.9747
▁feminist	-11.9748
▁Isaac	-11.9748
rud	-11.9749
▁snapped	-11.975
▁Geneva	-11.975
▁recommends	-11.975
▁sustainable	-11.975
▁brass	-11.9751
▁HE	-11.9751
jack	-11.9753
▁rig	-11.9754
▁shocking	-11.9756
▁Owen	-11.9757
▁7-6	-11.9758
▁posting	-11.976
▁Bros	-11.9761
ucker	-11.9761
▁envision	-11.9764
▁troubling	-11.9769
▁Pepsi	-11.9769
▁nationalist	-11.9772
▁cage	-11.9777
▁cruel	-11.9779
▁whistle	-11.9779
▁Vatican	-11.9779
▁clutch	-11.9779
▁prejudice	-11.9779
▁nasty	-11.9779
▁trunk	-11.9779
tim	-11.9779
▁trophy	-11.978
▁passport	-11.9783
diving	-11.9783
▁ext	-11.9785
bot	-11.9787
▁Meadows	-11.9789
▁upstairs	-11.9789
▁Electronic	-11.9789
▁paperwork	-11.9791
▁Dem	-11.9793
▁Gla	-11.9794
▁Burn	-11.9795
▁SW	-11.9796
▁misleading	-11.9796
▁merchants	-11.9799
▁inadequate	-11.9799
▁uranium	-11.9799
believing	-11.9799
▁Taking	-11.98
▁groom	-11.9802
▁bolt	-11.9802
▁coin	-11.9802
▁codes	-11.9802
itan	-11.9805
▁laying	-11.9806
▁Byrd	-11.9806
logged	-11.9809
▁Cambridge	-11.981
▁diamond	-11.981
▁breach	-11.981
▁Ground	-11.9811
▁shelf	-11.9811
▁steroids	-11.9811
kill	-11.9811
▁Levin	-11.9812
▁Friedman	-11.9812
▁renown	-11.9816
▁decisive	-11.9816
linger	-11.9821
6.7	-11.9821
▁stripped	-11.9822
▁cemetery	-11.9822
site	-11.9823
shoot	-11.9823
▁massage	-11.9825
265	-11.9826
▁darkness	-11.9829
▁jungle	-11.983
▁Happy	-11.983
▁murders	-11.9831
▁productions	-11.9835
▁printing	-11.9836
vision	-11.9837
-60	-11.9838
OM	-11.9838
▁ribbon	-11.984
▁Barnett	-11.9841
▁ripped	-11.9841
▁hottest	-11.9841
▁EC	-11.9847
▁Herb	-11.9847
▁Potomac	-11.985
▁charitable	-11.985
▁Neighborhood	-11.9851
▁cheek	-11.9851
▁turnover	-11.9852
▁clip	-11.9853
▁mono	-11.9854
▁backdrop	-11.9854
▁Pike	-11.9854
gri	-11.9857
▁Hir	-11.9859
▁experienc	-11.9859
▁quake	-11.9861
New	-11.9865
etting	-11.9866
▁bombings	-11.9866
▁classmates	-11.9868
▁Barber	-11.9869
drive	-11.987
▁formidable	-11.9871
▁lively	-11.9873
▁constituents	-11.9873
▁shareholder	-11.9873
▁Tha	-11.988
▁weekdays	-11.9881
CROSS	-11.9881
▁lounge	-11.9881
▁bunker	-11.9882
▁prep	-11.9885
▁slick	-11.9886
EY	-11.9887
▁Ag	-11.9887
▁trades	-11.9889
▁performer	-11.9891
CT	-11.9892
▁runoff	-11.9893
▁civilization	-11.9895
450	-11.9899
▁Opening	-11.9899
▁languages	-11.9899
fried	-11.9902
▁Vladimir	-11.9902
▁Wildcats	-11.9902
▁Grady	-11.9902
▁charts	-11.9902
▁Goodman	-11.9903
3-0	-11.9905
▁punish	-11.9905
▁Lit	-11.9906
▁bucks	-11.9907
▁Ob	-11.9907
▁pulls	-11.991
duct	-11.991
▁flawed	-11.991
▁5-7	-11.9911
▁Commercial	-11.9912
▁staging	-11.9912
▁outrageous	-11.9913
▁FM	-11.9913
5.8	-11.9914
▁Hood	-11.9915
▁fitting	-11.9916
▁Concord	-11.9918
▁hats	-11.9918
▁kindergarten	-11.9918
▁integrated	-11.9918
▁Omar	-11.9922
▁compassion	-11.9923
▁daunting	-11.9923
MO	-11.9926
▁inspections	-11.9928
▁Ahmed	-11.9933
OD	-11.9935
▁fastball	-11.9935
▁DIA	-11.9942
▁answering	-11.9942
-71	-11.9943
igo	-11.9943
▁Peninsula	-11.9943
▁cherry	-11.9944
▁advantages	-11.9944
▁Drugs	-11.9946
▁Irving	-11.9948
▁whip	-11.9949
▁filmmaker	-11.995
4-7	-11.9951
▁Serbia	-11.9953
▁identical	-11.9954
▁novelist	-11.9955
▁Hil	-11.9957
RON	-11.9957
▁Thi	-11.9958
▁Flor	-11.9962
name	-11.9962
▁caps	-11.9962
▁2-3	-11.9963
nz	-11.9964
▁libraries	-11.9964
▁tentative	-11.9964
▁Properti	-11.9965
Lo	-11.9966
.20	-11.9967
▁minors	-11.9968
▁lowered	-11.9969
▁Corner	-11.9971
▁specialized	-11.9972
▁declaration	-11.9975
emphasized	-11.9977
▁steering	-11.9979
▁Chart	-11.9983
▁blossom	-11.9985
▁Garrett	-11.9986
▁diagnosis	-11.9986
▁Fargo	-11.9986
▁Cody	-11.9987
▁steals	-11.9988
lance	-11.9992
ntz	-11.9992
trip	-11.9993
▁cleaned	-11.9994
wife	-11.9994
▁revolutionary	-11.9997
▁poison	-11.9998
▁8,000	-11.9998
▁Oaks	-12
efficient	-12
/1	-12
▁condo	-12
▁tucked	-12.0002
▁admissions	-12.0002
▁awesome	-12.0006
▁Cow	-12.0007
▁Batt	-12.0007
▁CDC	-12.0007
▁litter	-12.0007
uh	-12.0007
▁abuses	-12.0008
▁bucket	-12.0008
▁tasks	-12.0009
col	-12.0009
▁Meet	-12.0009
▁broadcasting	-12.0013
▁Cent	-12.0014
▁dancer	-12.0018
▁Rubin	-12.002
▁glow	-12.0022
▁slower	-12.0022
▁1-3	-12.0023
Fi	-12.0026
▁mounting	-12.0026
▁Schmidt	-12.0027
▁wrongdoing	-12.0027
▁discharge	-12.0027
▁Aid	-12.0027
▁26-	-12.0029
▁melt	-12.0032
0.0	-12.0033
▁putt	-12.0034
▁5-8	-12.0034
▁Grammy	-12.0037
▁Cunningham	-12.0037
caliber	-12.0037
ISH	-12.0038
▁naked	-12.0039
▁Carey	-12.0041
▁outreach	-12.0043
LIN	-12.0047
▁sprint	-12.0047
VILLE	-12.0048
▁Dominican	-12.0049
▁Hindu	-12.0052
▁Whitman	-12.0053
lash	-12.0053
▁Weis	-12.0053
▁horn	-12.0054
▁Br	-12.0054
▁secur	-12.0056
▁overlooked	-12.0056
▁inaugural	-12.0058
▁Soldier	-12.0058
▁Mine	-12.006
STER	-12.0061
PP	-12.0061
▁maneuver	-12.0061
▁amenit	-12.0063
▁marriages	-12.0064
▁assertion	-12.0065
kind	-12.0065
▁Fayette	-12.0068
▁beneficiar	-12.0069
▁fragment	-12.0069
▁1/8	-12.0069
▁Annual	-12.0069
▁handgun	-12.007
▁Nat	-12.0072
knit	-12.0072
NG	-12.0073
▁Shan	-12.0073
5-$	-12.0075
▁2-2	-12.0079
▁eligibility	-12.0079
▁freely	-12.008
▁robot	-12.008
▁Frontier	-12.008
▁automakers	-12.008
▁Brock	-12.0082
▁creek	-12.0082
▁diners	-12.0083
▁Cher	-12.0084
▁Virgin	-12.0086
▁reservation	-12.0087
OUR	-12.0089
▁jewel	-12.0089
▁exhausted	-12.0089
▁Tehran	-12.009
▁bait	-12.009
▁Usual	-12.009
dog	-12.0091
▁Var	-12.0098
▁Blo	-12.0098
tis	-12.0099
▁Lock	-12.01
▁Nissan	-12.01
▁Performance	-12.01
▁collision	-12.01
▁vacuum	-12.01
▁disabilities	-12.01
▁compliment	-12.0101
▁hum	-12.0102
▁anticipate	-12.0103
▁Russ	-12.0104
▁tunes	-12.0105
▁flooding	-12.0108
▁tumor	-12.0111
▁palace	-12.0111
▁Micro	-12.0111
mie	-12.0114
▁accidental	-12.0114
▁Weber	-12.0114
morph	-12.0115
▁Lab	-12.0117
▁Johnston	-12.0117
▁1955	-12.0117
▁grandson	-12.0117
▁revealing	-12.0118
▁Salvador	-12.012
▁immense	-12.0121
▁worsen	-12.0123
▁distraction	-12.0124
▁Die	-12.0126
▁Hale	-12.0131
▁Eisenhower	-12.0132
▁semester	-12.0132
▁subcommittee	-12.0132
▁intrigue	-12.0132
▁bride	-12.0132
▁mate	-12.0132
▁Kat	-12.0133
▁avoiding	-12.0134
▁commonly	-12.0137
▁shipment	-12.0139
▁disagreement	-12.0139
▁Find	-12.0141
▁Dylan	-12.0142
▁Thorn	-12.0142
▁enrich	-12.0143
RAN	-12.0144
▁sitcom	-12.0145
▁logical	-12.0149
▁Rein	-12.0151
Al	-12.0152
▁Renaissance	-12.0153
▁celery	-12.0153
▁pivot	-12.0153
▁savvy	-12.0154
iak	-12.0156
▁Mitt	-12.0157
cca	-12.0158
solved	-12.0159
▁adapted	-12.0161
▁volatile	-12.0163
quart	-12.0166
▁Ah	-12.0167
▁Sel	-12.0172
▁misconduct	-12.0174
▁treats	-12.0177
ady	-12.0178
▁Wolfe	-12.0178
Car	-12.0183
▁neat	-12.0184
▁inviting	-12.0185
▁temper	-12.0186
▁breathe	-12.0191
ways	-12.0193
▁genes	-12.0194
0.6	-12.0196
▁Corey	-12.0196
▁Perkins	-12.0196
▁perennial	-12.0196
▁1957	-12.0199
went	-12.0201
▁Thu	-12.0202
▁boiling	-12.0203
▁vivid	-12.0205
opted	-12.0205
▁Pam	-12.0208
▁roar	-12.021
uli	-12.0211
▁Heather	-12.0214
▁Chip	-12.0215
▁Nasdaq	-12.0217
gor	-12.0219
▁5-0	-12.022
▁Study	-12.0221
▁guitarist	-12.0222
▁Swan	-12.0223
▁fist	-12.0224
▁Mail	-12.0225
hack	-12.0226
▁Indy	-12.0226
▁Course	-12.0227
▁plummet	-12.0227
▁Perdue	-12.0228
▁Folk	-12.0228
documented	-12.0229
▁erect	-12.0229
girl	-12.0229
▁slam	-12.023
▁Claus	-12.0231
▁measur	-12.0232
grove	-12.0233
tus	-12.0234
Ha	-12.0235
▁nicely	-12.0235
▁FAA	-12.0235
▁Pleasant	-12.0236
grader	-12.0238
▁Match	-12.0239
▁frontier	-12.0239
▁Voters	-12.024
▁potent	-12.024
▁Lamb	-12.0242
▁Wheel	-12.0242
▁Estate	-12.0248
▁Brotherhood	-12.0249
▁paste	-12.025
▁birdie	-12.0252
▁Luck	-12.0255
▁commentator	-12.0257
▁Grossman	-12.0258
-35	-12.0259
▁Patrol	-12.026
▁warfare	-12.026
GR	-12.0263
owitz	-12.0263
▁Scout	-12.0264
▁creamy	-12.0265
▁noodles	-12.0267
supplied	-12.027
▁Hicks	-12.0271
▁hatred	-12.0271
▁Representatives	-12.028
▁ammunition	-12.0281
▁relish	-12.0281
▁nightclub	-12.0282
▁lethal	-12.0285
▁Para	-12.0285
▁leftover	-12.0285
▁Sei	-12.0289
▁accelerat	-12.029
▁hostage	-12.0291
▁dragged	-12.0292
▁applies	-12.0292
▁earliest	-12.0292
▁rewards	-12.0294
▁reservoir	-12.0302
▁rehab	-12.0303
▁driveway	-12.0303
▁moist	-12.0304
▁preference	-12.0305
sum	-12.0305
▁selections	-12.0306
osi	-12.0307
333	-12.0307
▁determin	-12.0307
▁1.6	-12.0308
stead	-12.031
▁audition	-12.0312
▁marvel	-12.0313
▁Ernest	-12.0313
▁Rap	-12.0313
FC	-12.0314
insky	-12.0315
▁ventures	-12.0317
San	-12.0317
▁instruct	-12.0317
▁abstract	-12.0317
▁inexpensive	-12.0318
▁calculated	-12.0318
▁pav	-12.0321
-74	-12.0322
▁rooted	-12.0326
▁Spurs	-12.0327
▁outright	-12.0331
▁Arabic	-12.0331
▁grapes	-12.0332
▁THREE	-12.0335
▁slept	-12.0335
▁Purdue	-12.0335
▁roam	-12.0335
mate	-12.0336
▁Lyons	-12.0341
▁entrepreneur	-12.0342
▁freed	-12.0344
▁drum	-12.0344
▁touching	-12.0345
▁happily	-12.0345
▁Move	-12.0346
▁reconstruction	-12.0347
-47	-12.0347
▁35-	-12.0347
▁Wise	-12.0347
▁neuro	-12.0348
▁Self	-12.035
nier	-12.0355
▁Louise	-12.0355
▁platter	-12.0356
▁Suburban	-12.0356
glo	-12.0356
uebec	-12.0358
0.8	-12.0362
▁1958	-12.0362
▁gesture	-12.0363
▁Gall	-12.0363
-68	-12.0363
▁SAT	-12.0364
▁Kin	-12.0367
esteem	-12.0367
▁Buddy	-12.0368
dam	-12.037
▁deployment	-12.037
▁Tip	-12.0371
writer	-12.0372
▁revised	-12.0374
▁grind	-12.0377
▁108	-12.0377
4.9	-12.0378
▁Tucson	-12.0378
▁Forsyth	-12.0378
▁Woodstock	-12.0378
store	-12.038
▁gala	-12.038
▁Royals	-12.0385
▁woes	-12.0386
arn	-12.0388
▁propaganda	-12.0389
▁ideology	-12.0389
SO	-12.0389
▁27-	-12.0391
▁RBIs	-12.0392
▁earnest	-12.0393
neath	-12.0394
ibb	-12.0395
▁reductions	-12.0396
▁Hau	-12.0396
case	-12.0396
▁frightening	-12.0397
▁$19	-12.0398
▁Present	-12.0399
6.8	-12.0399
▁revenge	-12.0399
▁Terrell	-12.0402
.15	-12.0403
▁countryside	-12.0405
▁fathers	-12.0407
dress	-12.0408
▁Barn	-12.0409
▁Highlands	-12.041
▁Fortunate	-12.041
▁shark	-12.041
KA	-12.0412
▁clan	-12.0412
▁rope	-12.0412
▁tri	-12.0413
▁crawl	-12.0414
▁pm	-12.0414
▁drunken	-12.0414
▁$24	-12.0416
▁bout	-12.0416
▁Seventh	-12.042
▁serial	-12.0421
▁Gateway	-12.0422
▁SB	-12.0422
haus	-12.0422
▁holdings	-12.0423
▁Milton	-12.0424
▁flee	-12.0425
▁snack	-12.0425
▁trafficking	-12.0427
▁cabbage	-12.0432
▁$150	-12.0434
▁tapped	-12.0435
▁waiver	-12.0436
gler	-12.0438
▁Hum	-12.0442
▁upside	-12.0442
▁Peyton	-12.0443
▁connecting	-12.0444
▁sponsorship	-12.0445
▁150,000	-12.0445
▁flooded	-12.0446
▁defin	-12.0446
▁persuad	-12.0446
▁Track	-12.0446
▁Christin	-12.0448
roy	-12.0449
▁Petr	-12.045
tric	-12.045
▁placement	-12.0451
310	-12.0452
▁prim	-12.0454
▁Thirty	-12.0454
▁hamstring	-12.0454
▁motel	-12.0454
▁uninsured	-12.0455
▁Brun	-12.0456
▁twins	-12.0462
▁traders	-12.0464
▁PHOTO	-12.0465
▁premature	-12.0465
▁Adult	-12.0465
Data	-12.0465
▁Wolve	-12.0467
▁104	-12.0469
▁stemm	-12.047
▁minimize	-12.047
NS	-12.047
0.4	-12.0471
▁Bruno	-12.0471
▁Lebanese	-12.0476
▁damaging	-12.0476
▁Avg	-12.0477
cation	-12.0479
0.7	-12.0479
▁bullets	-12.048
▁rust	-12.0482
▁Discovery	-12.0482
▁Tel	-12.0482
gon	-12.0484
▁Door	-12.0484
corn	-12.0484
▁CHA	-12.0484
▁sequel	-12.0487
▁Clinic	-12.0487
▁Racing	-12.0487
▁hood	-12.0488
▁Kingdom	-12.0488
▁prompting	-12.0488
▁Graves	-12.0489
▁canned	-12.0492
▁prints	-12.0493
▁Milan	-12.0494
arm	-12.0494
▁straw	-12.0497
▁Kremlin	-12.0498
mut	-12.05
▁clay	-12.05
▁90-	-12.05
▁Spe	-12.05
▁Brig	-12.05
▁4-3	-12.0501
▁predominantly	-12.0502
▁-1	-12.0503
▁Chelsea	-12.0509
responding	-12.051
▁Fee	-12.051
▁topping	-12.0511
eta	-12.0511
setting	-12.0513
▁battlefield	-12.0513
▁Rolling	-12.0516
DE	-12.0516
▁Wu	-12.0517
▁drained	-12.0518
▁Barcelona	-12.052
▁Confederate	-12.052
▁Emergency	-12.052
▁persistent	-12.052
▁fireworks	-12.052
gne	-12.0521
▁refusal	-12.0522
▁artifacts	-12.0523
▁Gru	-12.0526
▁sealed	-12.0528
▁Twin	-12.0528
▁kidnapp	-12.053
▁Industrial	-12.0531
▁thrust	-12.0531
▁gorgeous	-12.0531
uarter	-12.0531
▁colonial	-12.0531
▁Gail	-12.0531
▁copper	-12.0532
inc	-12.0532
▁renovat	-12.0535
▁Gur	-12.0538
people	-12.0539
FT	-12.0539
▁promoter	-12.054
▁cigar	-12.0541
▁Eat	-12.0543
road	-12.0549
4.1	-12.0549
▁spike	-12.0551
▁Nielsen	-12.0553
▁comedian	-12.0553
7-8	-12.0555
tas	-12.0555
▁outlaw	-12.0557
▁turnout	-12.0559
▁Celtics	-12.0561
uality	-12.0561
▁ladder	-12.0564
▁clinch	-12.0564
▁Nie	-12.0564
▁Playhouse	-12.0565
▁Olson	-12.0565
▁Michel	-12.0566
▁hype	-12.0567
▁Speed	-12.0568
▁Sav	-12.0571
▁Bio	-12.0573
security	-12.0574
etic	-12.0575
IF	-12.0577
▁Toy	-12.0577
▁6-10	-12.0577
▁consistenc	-12.0579
▁gaze	-12.058
▁sometime	-12.0581
▁Austria	-12.0582
▁adolescent	-12.0586
▁metaphor	-12.0586
▁forming	-12.0586
▁artwork	-12.0587
▁originat	-12.0588
▁flown	-12.0589
AU	-12.0592
▁gays	-12.0593
gone	-12.0595
▁hormone	-12.0597
▁avenue	-12.0597
▁Rivers	-12.0598
ution	-12.0601
▁Christianity	-12.0601
▁McK	-12.0601
▁Hopeful	-12.0604
▁Hai	-12.0605
▁Cra	-12.0606
▁$75	-12.0607
▁pact	-12.0607
▁circus	-12.0608
▁Webber	-12.0608
▁cows	-12.0608
▁acute	-12.0608
▁Learning	-12.0609
▁UP	-12.0615
▁7,000	-12.0616
urgency	-12.0616
▁leaning	-12.0618
lli	-12.0619
bone	-12.062
▁Sciences	-12.062
▁Ak	-12.0621
▁kicks	-12.0623
TALK	-12.0625
ipping	-12.0628
▁absent	-12.0629
▁Job	-12.063
▁quo	-12.0632
running	-12.0634
▁Ramon	-12.0637
▁robbe	-12.0638
▁despair	-12.0641
▁Valentine	-12.0643
▁settlers	-12.0644
▁apg	-12.0646
6.2	-12.0647
▁creatures	-12.0648
iki	-12.0649
-77	-12.0652
▁Lar	-12.0652
▁clout	-12.0652
▁outlet	-12.0653
▁bark	-12.0658
5-5	-12.0659
▁refund	-12.066
▁satisfying	-12.0662
hm	-12.0662
▁sketch	-12.0662
beck	-12.0662
▁kiss	-12.0663
▁Rookie	-12.0664
direct	-12.0664
▁45-	-12.0665
agh	-12.0666
▁defenders	-12.0666
loss	-12.0672
▁scouting	-12.0673
rrell	-12.0673
▁Mercury	-12.0674
▁Moody	-12.0675
▁cute	-12.0675
▁Keller	-12.0677
lined	-12.0678
FL	-12.0682
▁Wheeler	-12.0683
▁Fowler	-12.0686
▁availability	-12.0686
▁impeachment	-12.0686
▁furious	-12.0686
stop	-12.0689
spoken	-12.069
STR	-12.069
manship	-12.0691
▁fog	-12.0691
▁Sk	-12.0694
office	-12.0695
Dwight	-12.0697
▁modified	-12.0697
▁Kennesaw	-12.0697
▁Joshua	-12.0697
-85	-12.0697
clined	-12.0698
▁canyon	-12.0698
▁gene	-12.07
330	-12.0702
▁Noble	-12.0702
▁elevated	-12.0703
▁Fry	-12.0707
▁lush	-12.0708
-31	-12.0709
▁proving	-12.0709
▁directs	-12.0711
▁conclude	-12.0711
ibility	-12.0713
/4	-12.0717
▁shattered	-12.0719
blowing	-12.0719
▁Swedish	-12.0719
▁freak	-12.0719
▁magnitude	-12.0719
▁orientation	-12.0719
▁restraint	-12.0719
▁Stark	-12.0724
you	-12.0725
zed	-12.0726
▁Slow	-12.0727
fro	-12.0728
▁condominium	-12.073
▁embargo	-12.073
▁Politics	-12.073
▁Randolph	-12.073
ject	-12.0731
▁Harmon	-12.0733
▁Sep	-12.0733
IVE	-12.0734
▁examin	-12.0734
▁Mau	-12.0735
▁insight	-12.0735
▁undergraduate	-12.0742
sbury	-12.0743
▁Churchill	-12.0743
▁biologist	-12.0743
▁Stockton	-12.0745
▁Hun	-12.0745
▁1.4	-12.0747
ACK	-12.0751
▁hostages	-12.0752
▁Pedro	-12.0753
▁Beatles	-12.0753
▁generat	-12.0753
▁torch	-12.0754
▁Rand	-12.0754
lav	-12.0754
▁bits	-12.0754
▁Garner	-12.0755
▁Sum	-12.0759
▁LOS	-12.076
▁alley	-12.0761
▁cul	-12.0763
mart	-12.0764
▁Kaufman	-12.0764
▁lodging	-12.0764
▁wax	-12.0764
▁planner	-12.0765
▁una	-12.0766
▁Haitian	-12.0766
▁Az	-12.0767
▁Taste	-12.0769
▁plague	-12.0769
De	-12.0769
ech	-12.077
▁Lea	-12.0771
▁Latinos	-12.0771
▁provoke	-12.0774
150	-12.0774
chy	-12.0775
▁Alzheimer	-12.0775
▁Growth	-12.0778
▁contests	-12.0779
▁Koch	-12.078
GER	-12.0781
▁dreamed	-12.0783
▁Consumers	-12.0786
rain	-12.0786
▁patio	-12.0787
▁displaced	-12.0788
▁sigh	-12.0788
empt	-12.0793
▁permanently	-12.0798
▁freight	-12.0798
▁toddler	-12.0798
▁1953	-12.0798
▁Belmont	-12.0798
▁indicator	-12.08
▁subdivision	-12.08
▁distinguish	-12.0804
▁Haven	-12.0807
▁Diet	-12.0807
▁feat	-12.0809
▁interact	-12.0811
▁lid	-12.0813
HO	-12.0815
7,500	-12.082
▁pencil	-12.0821
▁Survey	-12.0821
▁confirmation	-12.0823
▁homeowner	-12.0824
▁firearms	-12.0826
▁Ele	-12.0828
mil	-12.0828
NI	-12.0828
▁Nigeria	-12.0829
▁stretching	-12.0829
▁Lights	-12.083
cylinder	-12.0832
▁licensing	-12.0832
▁60,000	-12.084
▁Belt	-12.084
▁protections	-12.084
▁Woody	-12.0841
ACE	-12.0842
▁complement	-12.0843
▁Scientists	-12.0843
▁inmate	-12.0844
▁Brewers	-12.0844
igh	-12.0846
▁crank	-12.0848
▁framed	-12.085
Thursday	-12.0851
▁Contemporary	-12.0855
emi	-12.0855
apping	-12.0861
nee	-12.0864
▁Sterritt	-12.0866
▁charities	-12.0866
▁Yorker	-12.0867
media	-12.0867
▁Uncle	-12.0867
▁Location	-12.0868
▁Damon	-12.0868
nia	-12.0868
ales	-12.0869
nin	-12.0869
▁Prior	-12.087
enko	-12.087
PER	-12.087
▁$45	-12.0871
▁confession	-12.0872
▁crush	-12.0872
▁Paper	-12.0874
▁hardship	-12.0877
▁compar	-12.0877
▁Cul	-12.0879
craft	-12.088
▁fundrais	-12.0881
▁alumni	-12.0881
▁7-5	-12.0882
▁dim	-12.0883
▁Dear	-12.0885
▁Hook	-12.0886
▁betray	-12.0887
▁Chance	-12.0888
▁Apollo	-12.0889
▁Feinstein	-12.0889
▁cafeteria	-12.0889
▁pistol	-12.0889
▁innocen	-12.0889
5.9	-12.0889
▁Sonny	-12.0889
▁slap	-12.0889
assuming	-12.089
▁Cotton	-12.0891
▁laughter	-12.0891
▁gauge	-12.0893
Anita	-12.0894
nel	-12.0895
▁Nan	-12.0896
ANT	-12.0896
Directions	-12.0898
▁fossil	-12.09
▁happiness	-12.09
▁rigorous	-12.09
▁cater	-12.0901
▁verge	-12.0901
▁sexy	-12.0901
▁Phone	-12.0901
[...]
